[PAD]	0
[UNK]	0
[SEP]	0
[BOS]	0
[EOS]	0
▁t	-0
▁a	-1
he	-2
in	-3
▁the	-4
▁o	-5
re	-6
er	-7
on	-8
▁s	-9
▁c	-10
is	-11
▁of	-12
at	-13
▁w	-14
nd	-15
or	-16
▁b	-17
it	-18
en	-19
▁in	-20
[[	-21
▁f	-22
ed	-23
al	-24
es	-25
▁p	-26
an	-27
▁[[	-28
]]	-29
ar	-30
▁m	-31
ic	-32
▁and	-33
▁d	-34
ion	-35
▁to	-36
ro	-37
▁h	-38
ing	-39
as	-40
le	-41
▁e	-42
ent	-43
ou	-44
▁th	-45
▁n	-46
▁l	-47
om	-48
▁re	-49
ly	-50
st	-51
▁is	-52
ot	-53
ct	-54
▁g	-55
am	-56
▁be	-57
ve	-58
il	-59
▁u	-60
▁*	-61
ut	-62
ce	-63
ol	-64
ri	-65
▁for	-66
▁as	-67
▁on	-68
se	-69
▁|	-70
ation	-71
ver	-72
ch	-73
▁<	-74
im	-75
▁st	-76
ge	-77
▁al	-78
id	-79
qu	-80
ad	-81
▁(	-82
ow	-83
ir	-84
ur	-85
ith	-86
ig	-87
▁by	-88
ter	-89
▁con	-90
▁an	-91
her	-92
▁was	-93
19	-94
▁it	-95
▁wh	-96
▁that	-97
''	-98
ist	-99
▁de	-100
▁with	-101
la	-102
▁=	-103
ul	-104
et	-105
ra	-106
rom	-107
▁are	-108
▁or	-109
▁com	-110
▁mo	-111
th	-112
us	-113
▁he	-114
ment	-115
ate	-116
pe	-117
▁pro	-118
ere	-119
el	-120
]],	-121
if	-122
op	-123
▁su	-124
▁at	-125
▁se	-126
▁v	-127
▁ch	-128
▁ex	-129
res	-130
▁-	-131
quot	-132
▁from	-133
ay	-134
age	-135
em	-136
est	-137
ain	-138
▁==	-139
ers	-140
▁&	-141
ity	-142
un	-143
ich	-144
ld	-145
um	-146
gh	-147
ies	-148
▁k	-149
▁his	-150
con	-151
▁this	-152
ical	-153
ab	-154
ther	-155
os	-156
od	-157
nt	-158
iv	-159
▁''	-160
so	-161
▁not	-162
art	-163
▁r	-164
ive	-165
▁ha	-166
ew	-167
ame	-168
▁j	-169
00	-170
ci	-171
▁which	-172
all	-173
ess	-174
te	-175
ian	-176
ort	-177
▁us	-178
ill	-179
▁y	-180
▁un	-181
red	-182
ant	-183
▁</	-184
ory	-185
ish	-186
ud	-187
▁le	-188
▁19	-189
▁1	-190
rib	-191
▁2	-192
and	-193
rou	-194
ally	-195
ac	-196
▁wor	-197
pt	-198
pp	-199
ber	-200
amp	-201
▁ar	-202
ome	-203
ction	-204
▁also	-205
ision	-206
ary	-207
ated	-208
▁comp	-209
ard	-210
ign	-211
the	-212
▁en	-213
lt	-214
ia	-215
▁have	-216
▁has	-217
▁man	-218
ribut	-219
ure	-220
rev	-221
▁sh	-222
cc	-223
gu	-224
▁were	-225
▁cou	-226
ak	-227
▁other	-228
rit	-229
▁whe	-230
igh	-231
▁can	-232
ast	-233
og	-234
ear	-235
▁am	-236
ous	-237
▁but	-238
per	-239
▁one	-240
tribut	-241
ine	-242
▁all	-243
▁ad	-244
ire	-245
▁int	-246
▁part	-247
ong	-248
▁ab	-249
cl	-250
ition	-251
du	-252
gt	-253
tern	-254
oc	-255
▁so	-256
▁[[19	-257
▁cont	-258
vers	-259
page	-260
▁af	-261
tributor	-262
contributor	-263
revision	-264
ran	-265
▁their	-266
ks	-267
ect	-268
]].	-269
ub	-270
ru	-271
ip	-272
com	-273
▁comm	-274
▁im	-275
ide	-276
ap	-277
▁*[[	-278
xt	-279
ations	-280
sp	-281
our	-282
ial	-283
▁its	-284
▁some	-285
ree	-286
act	-287
ore	-288
ry	-289
ag	-290
▁te	-291
ord	-292
▁pla	-293
▁they	-294
erm	-295
ell	-296
ult	-297
irst	-298
▁|-	-299
li	-300
▁who	-301
ass	-302
ence	-303
▁had	-304
land	-305
==	-306
▁most	-307
ited	-308
ates	-309
▁first	-310
▁cl	-311
▁more	-312
▁sy	-313
▁form	-314
▁there	-315
▁sp	-316
ces	-317
▁col	-318
ib	-319
▁dis	-320
▁been	-321
▁new	-322
iz	-323
eric	-324
out	-325
ust	-326
▁go	-327
▁ro	-328
▁ev	-329
ff	-330
▁bec	-331
▁tim	-332
ke	-333
▁||	-334
own	-335
vel	-336
▁year	-337
▁i	-338
▁tw	-339
▁many	-340
ph	-341
orm	-342
▁des	-343
▁such	-344
av	-345
ough	-346
ater	-347
▁me	-348
clud	-349
▁used	-350
ould	-351
lic	-352
▁bo	-353
ight	-354
ice	-355
ced	-356
ite	-357
▁cent	-358
able	-359
▁spe	-360
▁per	-361
▁pres	-362
pres	-363
▁ne	-364
ace	-365
=&	-366
les	-367
▁ag	-368
ten	-369
▁gen	-370
ational	-371
▁res	-372
▁no	-373
▁ser	-374
ound	-375
▁cons	-376
fere	-377
ile	-378
ach	-379
▁after	-380
ric	-381
text	-382
▁200	-383
▁co	-384
▁ind	-385
▁how	-386
▁includ	-387
ose	-388
▁we	-389
▁two	-390
au	-391
▁when	-392
tw	-393
ok	-394
▁into	-395
ase	-396
▁ele	-397
ern	-398
▁these	-399
low	-400
▁pe	-401
ular	-402
are	-403
cent	-404
▁than	-405
ath	-406
{{	-407
▁po	-408
stem	-409
▁rel	-410
▁eng	-411
▁act	-412
▁only	-413
ions	-414
▁kn	-415
▁ear	-416
nder	-417
▁may	-418
▁imp	-419
reat	-420
angu	-421
▁system	-422
▁americ	-423
▁over	-424
ics	-425
""	-426
ved	-427
ance	-428
▁em	-429
▁do	-430
▁time	-431
200	-432
▁acc	-433
een	-434
▁play	-435
hed	-436
▁langu	-437
int	-438
▁mar	-439
wn	-440
gin	-441
▁num	-442
</	-443
ght	-444
one	-445
▁out	-446
ateg	-447
▁app	-448
ack	-449
▁states	-450
form	-451
ade	-452
▁war	-453
ual	-454
very	-455
ie	-456
ren	-457
▁would	-458
▁up	-459
ind	-460
▁off	-461
uring	-462
ue	-463
▁ph	-464
▁under	-465
ever	-466
▁reg	-467
▁count	-468
▁sc	-469
olog	-470
ious	-471
comment	-472
ative	-473
ivers	-474
min	-475
▁call	-476
}}	-477
▁gener	-478
▁world	-479
▁rep	-480
▁ri	-481
▁ra	-482
▁mod	-483
▁however	-484
▁lar	-485
▁lin	-486
▁hist	-487
▁use	-488
tween	-489
▁between	-490
round	-491
▁dif	-492
▁them	-493
▁produ	-494
▁pol	-495
ft	-496
▁will	-497
irect	-498
▁li	-499
ans	-500
▁about	-501
ict	-502
▁art	-503
ens	-504
ually	-505
ategory	-506
lish	-507
rough	-508
▁{{	-509
▁===	-510
▁pop	-511
ident	-512
ors	-513
ck	-514
ject	-515
lo	-516
▁pub	-517
▁ap	-518
vern	-519
ople	-520
▁qu	-521
▁char	-522
ings	-523
▁def	-524
erman	-525
cial	-526
ered	-527
▁years	-528
]])	-529
ific	-530
▁pl	-531
oth	-532
▁if	-533
▁la	-534
old	-535
▁any	-536
category	-537
▁during	-538
ince	-539
▁pri	-540
▁inst	-541
▁him	-542
▁ed	-543
▁pos	-544
▁fe	-545
▁3	-546
ments	-547
ral	-548
▁govern	-549
▁language	-550
▁american	-551
▁work	-552
▁rec	-553
▁sub	-554
ied	-555
ram	-556
▁att	-557
gan	-558
▁where	-559
ased	-560
▁sim	-561
ost	-562
▁state	-563
ron	-564
▁rem	-565
rad	-566
▁ac	-567
▁people	-568
▁through	-569
ism	-570
ities	-571
sel	-572
▁199	-573
▁known	-574
▁called	-575
▁exp	-576
▁often	-577
ily	-578
▁writ	-579
ake	-580
▁fol	-581
ause	-582
uro	-583
roup	-584
▁found	-585
br	-586
fore	-587
cept	-588
▁add	-589
▁ob	-590
▁while	-591
ail	-592
▁her	-593
▁set	-594
ond	-595
oh	-596
▁mem	-597
ys	-598
ild	-599
▁car	-600
ll	-601
▁var	-602
▁/	-603
ash	-604
▁see	-605
▁ori	-606
velop	-607
ury	-608
▁inv	-609
▁inc	-610
ower	-611
▁number	-612
▁examp	-613
▁(19	-614
▁term	-615
ution	-616
▁group	-617
ays	-618
▁mus	-619
▁tran	-620
ward	-621
▁follow	-622
▁develop	-623
▁being	-624
▁name	-625
▁supp	-626
ents	-627
other	-628
urope	-629
tain	-630
urn	-631
▁fil	-632
iversity	-633
ted	-634
▁nor	-635
▁again	-636
▁differe	-637
▁both	-638
▁ref	-639
uch	-640
cess	-641
▁then	-642
ale	-643
ang	-644
ife	-645
▁sm	-646
ount	-647
▁'''	-648
'''	-649
▁city	-650
▁dist	-651
▁vi	-652
▁origin	-653
▁ma	-654
ove	-655
▁common	-656
ames	-657
▁made	-658
▁*[[19	-659
rist	-660
▁inf	-661
ible	-662
▁well	-663
▁king	-664
ished	-665
▁min	-666
▁end	-667
▁:	-668
▁fam	-669
▁ent	-670
tle	-671
▁you	-672
ures	-673
erve	-674
▁aut	-675
ritish	-676
▁prov	-677
▁fin	-678
▁''[[	-679
▁est	-680
▁like	-681
ons	-682
united	-683
orn	-684
▁main	-685
ages	-686
iss	-687
▁inter	-688
▁century	-689
▁since	-690
▁par	-691
▁eff	-692
▁**	-693
me	-694
▁stud	-695
▁[[1	-696
▁high	-697
▁const	-698
▁later	-699
see	-700
▁#	-701
ating	-702
▁government	-703
▁bu	-704
▁consid	-705
▁prog	-706
▁because	-707
▁met	-708
▁sou	-709
ather	-710
ml	-711
ically	-712
ble	-713
▁pr	-714
▁tra	-715
cted	-716
cy	-717
▁air	-718
▁--	-719
ternal	-720
raph	-721
▁pers	-722
▁large	-723
▁dec	-724
space	-725
▁each	-726
ress	-727
;/	-728
arch	-729
▁same	-730
▁history	-731
als	-732
▁film	-733
▁pre	-734
▁even	-735
though	-736
▁sa	-737
▁class	-738
▁trans	-739
conom	-740
▁example	-741
ists	-742
ise	-743
bers	-744
▁ii	-745
hes	-746
ohn	-747
▁united	-748
▁ty	-749
ctions	-750
hip	-751
▁sign	-752
xml	-753
ural	-754
▁bro	-755
▁colle	-756
▁cre	-757
▁loc	-758
bo	-759
▁ord	-760
▁german	-761
io	-762
▁"	-763
"">	-764
=""	-765
preserve	-766
▁ca	-767
hem	-768
ology	-769
▁4	-770
ving	-771
jor	-772
▁long	-773
▁sch	-774
▁early	-775
omet	-776
its	-777
ork	-778
▁sever	-779
▁word	-780
ters	-781
▁became	-782
▁own	-783
▁gu	-784
▁though	-785
▁partic	-786
▁import	-787
▁law	-788
▁several	-789
▁three	-790
uss	-791
list	-792
pend	-793
lie	-794
▁links	-795
cond	-796
▁lead	-797
ange	-798
▁hum	-799
ature	-800
su	-801
▁charact	-802
ries	-803
ital	-804
▁sur	-805
eng	-806
▁island	-807
▁english	-808
ts	-809
▁val	-810
itle	-811
ines	-812
▁different	-813
ract	-814
▁great	-815
▁much	-816
lu	-817
▁sci	-818
▁fo	-819
▁before	-820
ful	-821
▁disc	-822
▁point	-823
▁mon	-824
▁appe	-825
rench	-826
▁very	-827
▁contro	-828
▁major	-829
ix	-830
▁[[200	-831
urch	-832
ulation	-833
▁comple	-834
▁contin	-835
▁program	-836
▁result	-837
▁although	-838
▁arm	-839
▁national	-840
center	-841
iel	-842
▁including	-843
▁music	-844
▁occ	-845
▁small	-846
ined	-847
ex	-848
▁cur	-849
▁polit	-850
▁commun	-851
▁5	-852
chn	-853
feren	-854
▁power	-855
▁christ	-856
▁could	-857
iet	-858
▁spec	-859
▁giv	-860
▁those	-861
▁europe	-862
▁university	-863
▁align	-864
▁she	-865
ves	-866
▁med	-867
▁life	-868
led	-869
yle	-870
▁right	-871
▁against	-872
row	-873
▁direct	-874
▁econom	-875
lished	-876
▁trad	-877
▁equ	-878
▁mat	-879
ep	-880
▁([[	-881
self	-882
uter	-883
ccess	-884
ann	-885
col	-886
▁belie	-887
▁techn	-888
▁game	-889
▁what	-890
▁second	-891
gest	-892
▁general	-893
▁ass	-894
▁198	-895
▁now	-896
ars	-897
▁another	-898
▁design	-899
▁god	-900
▁british	-901
▁cor	-902
▁fran	-903
ograph	-904
▁fact	-905
version	-906
▁artic	-907
▁cla	-908
▁public	-909
ized	-910
▁book	-911
de	-912
▁poss	-913
▁last	-914
▁stand	-915
▁modern	-916
;&	-917
minor	-918
▁oper	-919
rent	-920
▁remain	-921
▁mil	-922
▁unt	-923
▁offic	-924
▁ret	-925
▁rev	-926
▁lit	-927
▁series	-928
mber	-929
▁sing	-930
▁18	-931
▁somet	-932
▁/>	-933
▁popular	-934
ived	-935
▁style	-936
ield	-937
ternational	-938
▁still	-939
ball	-940
osed	-941
▁day	-942
dom	-943
▁dem	-944
▁record	-945
erg	-946
▁show	-947
ouse	-948
▁back	-949
usern	-950
▁requ	-951
username	-952
uc	-953
▁until	-954
▁auth	-955
▁str	-956
ility	-957
▁compan	-958
▁organ	-959
▁emp	-960
▁cap	-961
▁bas	-962
▁op	-963
▁church	-964
▁party	-965
ional	-966
▁desc	-967
roman	-968
▁person	-969
▁adv	-970
▁cult	-971
▁effect	-972
▁elect	-973
ple	-974
▁[[199	-975
up	-976
▁allow	-977
▁cour	-978
▁div	-979
▁death	-980
▁support	-981
ick	-982
▁tradition	-983
td	-984
mar	-985
atic	-986
itary	-987
▁ke	-988
▁ge	-989
▁using	-990
gue	-991
mb	-992
▁did	-993
▁success	-994
▁conf	-995
ton	-996
iod	-997
▁usually	-998
▁among	-999
▁country	-1000
ty	-1001
imes	-1002
▁four	-1003
▁fun	-1004
▁av	-1005
ning	-1006
▁include	-1007
▁old	-1008
thern	-1009
ool	-1010
▁incre	-1011
air	-1012
▁fre	-1013
▁serv	-1014
▁process	-1015
hist	-1016
▁president	-1017
aking	-1018
olution	-1019
ne	-1020
ilar	-1021
ute	-1022
▁character	-1023
▁6	-1024
ros	-1025
ger	-1026
ense	-1027
formation	-1028
ired	-1029
▁order	-1030
▁area	-1031
ided	-1032
▁way	-1033
▁mark	-1034
bn	-1035
▁human	-1036
ament	-1037
▁ext	-1038
ele	-1039
▁around	-1040
▁similar	-1041
▁es	-1042
bert	-1043
▁appro	-1044
ublic	-1045
▁land	-1046
▁north	-1047
day	-1048
ode	-1049
par	-1050
ants	-1051
▁based	-1052
way	-1053
▁view	-1054
▁south	-1055
▁following	-1056
▁opp	-1057
▁rele	-1058
▁within	-1059
hen	-1060
▁inde	-1061
▁repres	-1062
▁[[18	-1063
ze	-1064
▁lo	-1065
▁press	-1066
▁theory	-1067
tend	-1068
▁every	-1069
▁mill	-1070
▁claim	-1071
pect	-1072
ting	-1073
▁school	-1074
ention	-1075
▁author	-1076
▁particular	-1077
▁run	-1078
ik	-1079
▁current	-1080
▁period	-1081
▁just	-1082
▁important	-1083
ried	-1084
ave	-1085
ruct	-1086
▁gre	-1087
▁typ	-1088
ories	-1089
▁considered	-1090
ason	-1091
▁due	-1092
▁does	-1093
▁}}	-1094
▁cell	-1095
▁pass	-1096
▁population	-1097
000	-1098
▁french	-1099
por	-1100
▁near	-1101
▁article	-1102
▁leg	-1103
right	-1104
new	-1105
ably	-1106
ood	-1107
imate	-1108
).	-1109
▁members	-1110
▁197	-1111
ives	-1112
▁hand	-1113
gen	-1114
▁continu	-1115
not	-1116
▁histor	-1117
▁prev	-1118
ians	-1119
amed	-1120
end	-1121
soci	-1122
redirect	-1123
▁move	-1124
ertain	-1125
▁start	-1126
▁should	-1127
▁house	-1128
▁mean	-1129
▁given	-1130
▁dep	-1131
▁contain	-1132
ins	-1133
▁dom	-1134
▁accord	-1135
▁political	-1136
▁port	-1137
reek	-1138
ross	-1139
▁isbn	-1140
▁team	-1141
ock	-1142
▁exper	-1143
und	-1144
▁cal	-1145
▁(200	-1146
▁influ	-1147
▁bat	-1148
to	-1149
▁fl	-1150
ript	-1151
▁!	-1152
▁aust	-1153
iam	-1154
▁crit	-1155
▁bl	-1156
ared	-1157
▁less	-1158
▁exist	-1159
▁sometimes	-1160
rodu	-1161
▁make	-1162
▁information	-1163
ody	-1164
▁without	-1165
▁prop	-1166
▁refer	-1167
▁real	-1168
▁dat	-1169
press	-1170
blem	-1171
▁few	-1172
▁open	-1173
▁sec	-1174
ases	-1175
▁describ	-1176
▁pract	-1177
ified	-1178
ize	-1179
▁addition	-1180
▁perform	-1181
▁short	-1182
▁phil	-1183
▁york	-1184
▁kingdom	-1185
▁\	-1186
▁relig	-1187
▁far	-1188
ser	-1189
▁ir	-1190
▁eas	-1191
ither	-1192
▁field	-1193
ices	-1194
▁2005	-1195
▁place	-1196
▁problem	-1197
ird	-1198
gust	-1199
▁rest	-1200
▁rese	-1201
▁various	-1202
▁child	-1203
ium	-1204
▁associ	-1205
▁ide	-1206
pl	-1207
▁my	-1208
▁thus	-1209
estern	-1210
▁ful	-1211
quent	-1212
john	-1213
▁countries	-1214
▁web	-1215
▁sour	-1216
▁represent	-1217
▁har	-1218
ret	-1219
ivil	-1220
ring	-1221
▁become	-1222
empt	-1223
▁control	-1224
read	-1225
▁ter	-1226
▁standard	-1227
ier	-1228
ised	-1229
▁foot	-1230
▁international	-1231
▁phys	-1232
tim	-1233
osop	-1234
▁estab	-1235
▁present	-1236
▁others	-1237
external	-1238
▁military	-1239
▁down	-1240
▁according	-1241
ven	-1242
▁home	-1243
▁gra	-1244
▁case	-1245
ina	-1246
ril	-1247
cing	-1248
▁jo	-1249
▁times	-1250
▁must	-1251
▁(199	-1252
iqu	-1253
king	-1254
▁fore	-1255
oks	-1256
▁player	-1257
oun	-1258
lack	-1259
▁generally	-1260
▁age	-1261
man	-1262
▁top	-1263
▁7	-1264
▁family	-1265
eral	-1266
▁systems	-1267
lear	-1268
▁title	-1269
▁version	-1270
no	-1271
▁free	-1272
used	-1273
▁left	-1274
▁tak	-1275
▁sw	-1276
order	-1277
▁read	-1278
▁0	-1279
--	-1280
▁rul	-1281
▁began	-1282
cially	-1283
son	-1284
▁sol	-1285
▁let	-1286
ese	-1287
▁never	-1288
orts	-1289
▁line	-1290
▁east	-1291
▁computer	-1292
▁need	-1293
align	-1294
▁chang	-1295
▁union	-1296
▁original	-1297
ety	-1298
,000	-1299
apan	-1300
urther	-1301
iction	-1302
▁tem	-1303
history	-1304
md	-1305
▁written	-1306
▁head	-1307
▁development	-1308
math	-1309
▁net	-1310
▁west	-1311
▁independ	-1312
▁8	-1313
ris	-1314
▁official	-1315
▁rece	-1316
▁attempt	-1317
itions	-1318
ission	-1319
▁dra	-1320
▁company	-1321
mdash	-1322
most	-1323
▁indu	-1324
wh	-1325
▁recent	-1326
sc	-1327
ming	-1328
ured	-1329
▁rather	-1330
wor	-1331
▁text	-1332
▁bus	-1333
▁er	-1334
▁return	-1335
▁pat	-1336
▁coun	-1337
▁republic	-1338
▁led	-1339
lin	-1340
rop	-1341
"">#	-1342
▁relations	-1343
mon	-1344
▁water	-1345
▁hel	-1346
▁rad	-1347
▁level	-1348
az	-1349
▁force	-1350
▁games	-1351
▁proper	-1352
▁good	-1353
▁soci	-1354
ister	-1355
use	-1356
▁languages	-1357
▁afric	-1358
▁196	-1359
▁prof	-1360
ides	-1361
ged	-1362
ological	-1363
:''	-1364
cient	-1365
▁el	-1366
:'''	-1367
ax	-1368
ially	-1369
▁event	-1370
▁civil	-1371
ization	-1372
▁resp	-1373
▁introdu	-1374
▁vol	-1375
ography	-1376
▁10	-1377
med	-1378
▁list	-1379
▁lat	-1380
▁comb	-1381
▁jew	-1382
▁philosop	-1383
▁further	-1384
▁certain	-1385
▁begin	-1386
▁space	-1387
▁meth	-1388
ank	-1389
▁along	-1390
ivid	-1391
▁occur	-1392
▁[[198	-1393
▁data	-1394
]]''	-1395
▁college	-1396
ering	-1397
▁ann	-1398
▁build	-1399
▁empire	-1400
▁object	-1401
▁million	-1402
▁9	-1403
side	-1404
▁prom	-1405
ration	-1406
▁ho	-1407
ency	-1408
▁feat	-1409
▁best	-1410
atural	-1411
▁stat	-1412
5]]	-1413
▁invol	-1414
▁disp	-1415
▁struct	-1416
▁christian	-1417
▁science	-1418
irc	-1419
▁groups	-1420
▁conc	-1421
▁individ	-1422
▁john	-1423
ges	-1424
▁method	-1425
▁tr	-1426
▁either	-1427
▁central	-1428
hing	-1429
▁turn	-1430
tr	-1431
olic	-1432
▁works	-1433
▁test	-1434
▁der	-1435
▁[[197	-1436
ner	-1437
▁said	-1438
▁wide	-1439
rid	-1440
.,	-1441
orge	-1442
▁win	-1443
comp	-1444
ec	-1445
iving	-1446
▁former	-1447
omen	-1448
▁dev	-1449
▁diff	-1450
▁pa	-1451
une	-1452
▁means	-1453
▁engine	-1454
▁red	-1455
▁named	-1456
▁published	-1457
▁vis	-1458
▁anim	-1459
▁single	-1460
▁hig	-1461
els	-1462
▁individual	-1463
▁aff	-1464
hy	-1465
avid	-1466
ferences	-1467
▁late	-1468
alth	-1469
4]]	-1470
▁roman	-1471
▁arch	-1472
go	-1473
pecially	-1474
▁body	-1475
▁take	-1476
▁earth	-1477
ley	-1478
▁know	-1479
▁possible	-1480
▁america	-1481
▁lim	-1482
bru	-1483
▁bre	-1484
▁social	-1485
ways	-1486
▁lea	-1487
by	-1488
americ	-1489
▁ident	-1490
cember	-1491
▁alb	-1492
▁prote	-1493
▁prin	-1494
▁developed	-1495
ef	-1496
▁england	-1497
▁islands	-1498
erest	-1499
▁indust	-1500
▁*''	-1501
cil	-1502
wards	-1503
ndash	-1504
▁beh	-1505
▁light	-1506
▁20	-1507
anish	-1508
▁canad	-1509
▁western	-1510
idd	-1511
american	-1512
ftw	-1513
▁bar	-1514
▁held	-1515
raft	-1516
▁grow	-1517
ference	-1518
vision	-1519
▁mass	-1520
title	-1521
▁help	-1522
▁product	-1523
▁service	-1524
1]]	-1525
▁today	-1526
▁took	-1527
itution	-1528
ftware	-1529
ient	-1530
▁special	-1531
ondon	-1532
verse	-1533
▁army	-1534
▁circ	-1535
▁having	-1536
▁interest	-1537
enn	-1538
▁function	-1539
▁european	-1540
co	-1541
▁regard	-1542
▁strong	-1543
ior	-1544
▁song	-1545
fran	-1546
▁court	-1547
▁economic	-1548
3]]	-1549
▁access	-1550
2]]	-1551
ively	-1552
▁project	-1553
box	-1554
idence	-1555
▁camp	-1556
sy	-1557
▁kill	-1558
▁lab	-1559
▁argu	-1560
▁treat	-1561
uary	-1562
ott	-1563
▁appear	-1564
▁separ	-1565
▁tru	-1566
less	-1567
ember	-1568
▁local	-1569
▁base	-1570
ergy	-1571
yed	-1572
german	-1573
▁son	-1574
amb	-1575
viet	-1576
▁above	-1577
▁au	-1578
oss	-1579
▁low	-1580
▁bra	-1581
reme	-1582
▁sk	-1583
▁plan	-1584
▁seen	-1585
ying	-1586
tal	-1587
▁z	-1588
▁sit	-1589
▁hold	-1590
▁football	-1591
▁tele	-1592
▁especially	-1593
▁words	-1594
anuary	-1595
▁pur	-1596
▁sug	-1597
▁concept	-1598
ness	-1599
▁mag	-1600
ah	-1601
▁km	-1602
▁itself	-1603
▁came	-1604
▁et	-1605
▁bi	-1606
rew	-1607
▁ep	-1608
world	-1609
line	-1610
▁mater	-1611
color	-1612
▁upon	-1613
▁books	-1614
▁famous	-1615
▁role	-1616
▁cop	-1617
▁forces	-1618
ogn	-1619
val	-1620
▁league	-1621
▁complete	-1622
▁software	-1623
▁region	-1624
alf	-1625
ances	-1626
18	-1627
▁anal	-1628
▁avail	-1629
for	-1630
▁ve	-1631
▁scient	-1632
▁signific	-1633
▁sea	-1634
▁almost	-1635
▁accept	-1636
ales	-1637
▁educ	-1638
▁youn	-1639
▁fa	-1640
▁defin	-1641
▁society	-1642
▁full	-1643
rael	-1644
craft	-1645
▁created	-1646
▁himself	-1647
▁di	-1648
ox	-1649
aut	-1650
▁material	-1651
▁instru	-1652
▁cond	-1653
yal	-1654
rict	-1655
▁children	-1656
ead	-1657
▁subject	-1658
etic	-1659
edia	-1660
peror	-1661
▁find	-1662
ctor	-1663
▁sound	-1664
6]]	-1665
ator	-1666
▁heav	-1667
▁repla	-1668
▁terms	-1669
),	-1670
▁cy	-1671
▁austral	-1672
▁largest	-1673
▁den	-1674
▁areas	-1675
▁position	-1676
▁[[196	-1677
ark	-1678
▁color	-1679
▁once	-1680
▁2004	-1681
▁story	-1682
▁care	-1683
▁town	-1684
▁research	-1685
▁site	-1686
▁market	-1687
ilt	-1688
▁sum	-1689
▁side	-1690
stand	-1691
ination	-1692
▁black	-1693
▁ru	-1694
▁men	-1695
▁conv	-1696
▁meas	-1697
▁band	-1698
▁might	-1699
▁redu	-1700
===	-1701
▁third	-1702
cip	-1703
ality	-1704
▁activ	-1705
▁mot	-1706
▁river	-1707
▁bc	-1708
▁consider	-1709
ths	-1710
inese	-1711
uly	-1712
lag	-1713
▁council	-1714
▁dr	-1715
▁get	-1716
ster	-1717
▁produced	-1718
ches	-1719
▁change	-1720
▁available	-1721
▁cath	-1722
▁territ	-1723
▁played	-1724
▁broad	-1725
▁dou	-1726
fer	-1727
tic	-1728
we	-1729
▁earli	-1730
ential	-1731
50	-1732
▁hy	-1733
▁community	-1734
ats	-1735
▁dest	-1736
▁rights	-1737
▁x	-1738
▁ball	-1739
ground	-1740
▁father	-1741
▁transl	-1742
gether	-1743
▁liter	-1744
▁little	-1745
pol	-1746
vir	-1747
mit	-1748
quently	-1749
▁close	-1750
▁dri	-1751
ival	-1752
aster	-1753
▁significant	-1754
tended	-1755
be	-1756
iew	-1757
▁production	-1758
liament	-1759
▁democ	-1760
▁obser	-1761
of	-1762
▁culture	-1763
▁suggest	-1764
▁energy	-1765
▁released	-1766
nor	-1767
▁days	-1768
▁bill	-1769
▁det	-1770
▁express	-1771
▁forms	-1772
▁type	-1773
ander	-1774
▁report	-1775
▁instead	-1776
europe	-1777
▁source	-1778
▁germany	-1779
▁init	-1780
▁least	-1781
▁center	-1782
▁tri	-1783
▁vot	-1784
rug	-1785
▁minister	-1786
cto	-1787
outh	-1788
ctober	-1789
work	-1790
iness	-1791
▁numbers	-1792
▁cost	-1793
ences	-1794
▁vir	-1795
▁norm	-1796
▁greek	-1797
9]]	-1798
7]]	-1799
▁jud	-1800
▁member	-1801
left	-1802
▁next	-1803
here	-1804
ones	-1805
▁august	-1806
▁meaning	-1807
▁image	-1808
▁five	-1809
▁movement	-1810
▁hard	-1811
▁included	-1812
▁established	-1813
▁12	-1814
.)	-1815
ately	-1816
▁taken	-1817
▁border	-1818
▁france	-1819
▁capital	-1820
▁natural	-1821
akes	-1822
ots	-1823
▁making	-1824
▁japan	-1825
;!	-1826
;!--	-1827
▁hit	-1828
▁always	-1829
ptember	-1830
arent	-1831
▁parts	-1832
▁foreign	-1833
▁eth	-1834
▁recogn	-1835
▁ital	-1836
▁becom	-1837
apt	-1838
8]]	-1839
▁chem	-1840
iddle	-1841
0]]	-1842
▁entire	-1843
can	-1844
▁total	-1845
▁study	-1846
na	-1847
ffic	-1848
▁code	-1849
▁built	-1850
▁religious	-1851
▁uses	-1852
ps	-1853
asing	-1854
▁fall	-1855
▁194	-1856
▁together	-1857
oint	-1858
yn	-1859
▁prob	-1860
af	-1861
▁deter	-1862
▁external	-1863
▁account	-1864
▁mov	-1865
▁thought	-1866
▁died	-1867
▁depend	-1868
char	-1869
ert	-1870
ique	-1871
rote	-1872
▁fri	-1873
hemat	-1874
▁players	-1875
;''	-1876
bruary	-1877
▁polic	-1878
▁mount	-1879
▁white	-1880
▁six	-1881
▁*/	-1882
▁ben	-1883
▁album	-1884
▁quest	-1885
▁profess	-1886
cul	-1887
ape	-1888
ling	-1889
▁--&	-1890
british	-1891
istic	-1892
▁traditional	-1893
▁range	-1894
▁northern	-1895
▁sl	-1896
/*	-1897
>/*	-1898
▁fail	-1899
▁relative	-1900
▁seem	-1901
aps	-1902
ony	-1903
▁attack	-1904
▁admin	-1905
▁previous	-1906
▁issu	-1907
▁mult	-1908
▁comput	-1909
▁except	-1910
itive	-1911
▁instit	-1912
▁du	-1913
▁related	-1914
▁bet	-1915
▁complex	-1916
▁below	-1917
▁born	-1918
▁card	-1919
▁say	-1920
▁vict	-1921
▁technology	-1922
▁fed	-1923
▁page	-1924
▁russ	-1925
mary	-1926
▁ancient	-1927
▁parliament	-1928
▁evidence	-1929
▁prot	-1930
▁15	-1931
icult	-1932
ius	-1933
viron	-1934
▁business	-1935
▁mach	-1936
english	-1937
▁women	-1938
ma	-1939
over	-1940
mer	-1941
ruction	-1942
▁compet	-1943
▁catholic	-1944
ored	-1945
▁coast	-1946
▁model	-1947
sport	-1948
lex	-1949
ridge	-1950
▁deb	-1951
ocu	-1952
gcolor	-1953
▁referred	-1954
aust	-1955
▁experi	-1956
▁difficult	-1957
;#	-1958
▁distin	-1959
▁israel	-1960
▁sent	-1961
▁box	-1962
▁hen	-1963
french	-1964
▁final	-1965
▁subst	-1966
face	-1967
▁independent	-1968
▁whose	-1969
lect	-1970
▁star	-1971
xual	-1972
oms	-1973
computer	-1974
rich	-1975
▁specific	-1976
▁deg	-1977
▁novel	-1978
▁trade	-1979
selves	-1980
▁tre	-1981
▁key	-1982
▁expl	-1983
▁throughout	-1984
▁nav	-1985
▁amount	-1986
▁stre	-1987
ee	-1988
▁rom	-1989
▁fund	-1990
▁ship	-1991
▁london	-1992
kn	-1993
▁sold	-1994
▁whether	-1995
will	-1996
ops	-1997
▁therefore	-1998
▁fac	-1999
▁put	-2000
gy	-2001
▁|}	-2002
▁domin	-2003
▁compos	-2004
▁altern	-2005
▁gr	-2006
▁young	-2007
▁ess	-2008
▁names	-2009
university	-2010
▁themselves	-2011
▁fem	-2012
▁ver	-2013
▁won	-2014
▁our	-2015
▁rate	-2016
▁administ	-2017
▁structure	-2018
▁lost	-2019
▁symb	-2020
▁([[19	-2021
abet	-2022
▁simp	-2023
▁cases	-2024
▁network	-2025
▁award	-2026
▁emperor	-2027
▁jour	-2028
▁wrote	-2029
▁living	-2030
▁[[194	-2031
▁discuss	-2032
ane	-2033
ideo	-2034
port	-2035
▁elements	-2036
▁exec	-2037
▁season	-2038
▁battle	-2039
span	-2040
▁too	-2041
▁species	-2042
lied	-2043
ceed	-2044
▁constitution	-2045
▁clear	-2046
▁come	-2047
▁desp	-2048
▁particularly	-2049
▁capt	-2050
▁enc	-2051
▁ill	-2052
▁concern	-2053
▁continued	-2054
▁cat	-2055
▁cross	-2056
isl	-2057
▁{	-2058
bor	-2059
▁here	-2060
▁television	-2061
▁described	-2062
chie	-2063
▁log	-2064
ental	-2065
▁cities	-2066
15	-2067
▁nature	-2068
▁eventually	-2069
hest	-2070
▁hun	-2071
wik	-2072
▁stri	-2073
▁value	-2074
uses	-2075
▁indic	-2076
▁applic	-2077
▁electron	-2078
▁successful	-2079
)|	-2080
2-	-2081
▁rule	-2082
▁higher	-2083
▁nations	-2084
top	-2085
national	-2086
▁originally	-2087
fe	-2088
gypt	-2089
ability	-2090
▁193	-2091
'',	-2092
▁11	-2093
▁despite	-2094
▁influence	-2095
▁ant	-2096
▁aircraft	-2097
▁priv	-2098
▁division	-2099
▁creat	-2100
▁commer	-2101
▁docu	-2102
▁able	-2103
▁africa	-2104
▁eastern	-2105
▁post	-2106
▁2003	-2107
vironment	-2108
▁adop	-2109
▁commonly	-2110
▁lower	-2111
uel	-2112
ler	-2113
▁oppos	-2114
▁your	-2115
▁historical	-2116
▁temper	-2117
▁true	-2118
▁reason	-2119
▁gain	-2120
ham	-2121
▁necess	-2122
▁economy	-2123
chan	-2124
▁hol	-2125
▁chinese	-2126
ached	-2127
▁half	-2128
▁bir	-2129
▁brit	-2130
▁liber	-2131
▁pain	-2132
▁election	-2133
uation	-2134
imately	-2135
▁maintain	-2136
erous	-2137
▁southern	-2138
▁rock	-2139
▁radio	-2140
rian	-2141
▁food	-2142
▁practice	-2143
▁problems	-2144
tens	-2145
rated	-2146
▁*[[18	-2147
▁formed	-2148
▁mor	-2149
ining	-2150
iforn	-2151
▁actually	-2152
▁pred	-2153
▁characters	-2154
▁extens	-2155
▁cho	-2156
ingu	-2157
▁miss	-2158
▁respect	-2159
▁note	-2160
▁followed	-2161
ume	-2162
▁invest	-2163
▁*''[[	-2164
ifornia	-2165
▁belief	-2166
erv	-2167
▁impro	-2168
▁friend	-2169
with	-2170
▁april	-2171
pri	-2172
ont	-2173
ront	-2174
▁vers	-2175
;|	-2176
pro	-2177
lement	-2178
▁revolution	-2179
▁pow	-2180
▁typically	-2181
ison	-2182
rown	-2183
▁fig	-2184
bat	-2185
▁david	-2186
▁programming	-2187
nect	-2188
20	-2189
▁simply	-2190
▁films	-2191
gar	-2192
main	-2193
▁webs	-2194
▁ground	-2195
▁subse	-2196
▁differen	-2197
▁ara	-2198
ption	-2199
▁link	-2200
▁cannot	-2201
add	-2202
iation	-2203
▁outside	-2204
▁wid	-2205
▁speak	-2206
▁2000	-2207
▁mechan	-2208
▁live	-2209
▁love	-2210
christ	-2211
known	-2212
▁agree	-2213
bel	-2214
▁widely	-2215
▁fav	-2216
▁detail	-2217
▁includes	-2218
▁commit	-2219
▁office	-2220
▁education	-2221
ternet	-2222
nal	-2223
ael	-2224
ria	-2225
▁abs	-2226
▁fire	-2227
▁cit	-2228
inary	-2229
atives	-2230
▁meet	-2231
▁believe	-2232
get	-2233
estamp	-2234
timestamp	-2235
▁don	-2236
enced	-2237
▁wind	-2238
▁che	-2239
ification	-2240
sw	-2241
▁received	-2242
▁relationship	-2243
▁beginning	-2244
▁tend	-2245
▁actor	-2246
bit	-2247
▁ins	-2248
▁dig	-2249
▁news	-2250
▁uk	-2251
west	-2252
ireland	-2253
ounced	-2254
▁viol	-2255
▁defe	-2256
▁park	-2257
▁thin	-2258
inal	-2259
▁asse	-2260
▁cause	-2261
▁hor	-2262
gress	-2263
rought	-2264
back	-2265
▁distribut	-2266
▁script	-2267
acy	-2268
▁associated	-2269
ues	-2270
ratic	-2271
cite	-2272
▁past	-2273
william	-2274
▁spir	-2275
cle	-2276
▁size	-2277
ug	-2278
▁events	-2279
▁soviet	-2280
▁/&	-2281
element	-2282
▁ever	-2283
ald	-2284
verage	-2285
▁symbol	-2286
leg	-2287
ude	-2288
▁basic	-2289
▁march	-2290
▁constant	-2291
▁connect	-2292
▁soon	-2293
▁located	-2294
ms	-2295
▁bel	-2296
asion	-2297
▁points	-2298
like	-2299
▁gold	-2300
▁canada	-2301
rary	-2302
adem	-2303
▁remo	-2304
▁consist	-2305
ledge	-2306
▁2001	-2307
▁club	-2308
▁action	-2309
▁went	-2310
▁fut	-2311
george	-2312
▁building	-2313
▁industry	-2314
oot	-2315
▁extreme	-2316
▁increasing	-2317
▁rail	-2318
▁understand	-2319
utes	-2320
▁designed	-2321
▁introduced	-2322
▁idea	-2323
pr	-2324
lled	-2325
▁neg	-2326
ray	-2327
ched	-2328
fact	-2329
▁alex	-2330
▁variet	-2331
▁iii	-2332
▁india	-2333
▁purp	-2334
▁added	-2335
▁secret	-2336
▁pal	-2337
south	-2338
▁yet	-2339
▁univers	-2340
▁types	-2341
▁environment	-2342
▁philosophy	-2343
▁examples	-2344
▁command	-2345
▁started	-2346
▁16	-2347
unic	-2348
▁schol	-2349
▁fiction	-2350
▁probably	-2351
▁allowed	-2352
▁services	-2353
▁host	-2354
▁believed	-2355
▁deal	-2356
car	-2357
▁features	-2358
▁squ	-2359
▁china	-2360
▁changes	-2361
ford	-2362
yl	-2363
▁interp	-2364
overed	-2365
▁{|	-2366
pped	-2367
▁across	-2368
▁leader	-2369
▁reference	-2370
▁critic	-2371
▁provide	-2372
hers	-2373
rial	-2374
▁minor	-2375
▁physical	-2376
▁required	-2377
▁rules	-2378
bra	-2379
anted	-2380
▁lear	-2381
▁county	-2382
▁tro	-2383
▁brought	-2384
▁big	-2385
▁ste	-2386
european	-2387
▁ur	-2388
lood	-2389
ror	-2390
▁achie	-2391
▁emplo	-2392
▁elected	-2393
▁studies	-2394
▁arab	-2395
▁middle	-2396
references	-2397
▁website	-2398
▁majority	-2399
▁aud	-2400
▁epis	-2401
▁colum	-2402
▁dam	-2403
greek	-2404
ensive	-2405
▁multip	-2406
cer	-2407
▁defined	-2408
▁require	-2409
▁contribut	-2410
▁currently	-2411
▁decl	-2412
▁jewish	-2413
▁away	-2414
omas	-2415
▁[[193	-2416
▁look	-2417
▁sense	-2418
▁travel	-2419
▁december	-2420
ime	-2421
▁remains	-2422
elementbox	-2423
▁respons	-2424
alk	-2425
▁inte	-2426
;2	-2427
▁resour	-2428
ene	-2429
put	-2430
▁surv	-2431
▁earlier	-2432
nb	-2433
istics	-2434
ready	-2435
cis	-2436
▁pen	-2437
▁edition	-2438
▁future	-2439
▁super	-2440
25	-2441
▁lib	-2442
ength	-2443
▁longer	-2444
action	-2445
▁larger	-2446
▁pot	-2447
▁january	-2448
▁element	-2449
▁speed	-2450
lim	-2451
▁lord	-2452
▁contains	-2453
▁organization	-2454
11	-2455
▁health	-2456
▁acid	-2457
eration	-2458
international	-2459
▁champ	-2460
▁legal	-2461
▁personal	-2462
▁dut	-2463
mat	-2464
▁already	-2465
▁controvers	-2466
▁association	-2467
acks	-2468
▁foc	-2469
▁separate	-2470
oid	-2471
▁100	-2472
▁wee	-2473
▁limited	-2474
▁approx	-2475
▁online	-2476
▁effects	-2477
ets	-2478
▁(198	-2479
▁movie	-2480
sh	-2481
ctr	-2482
uted	-2483
▁orth	-2484
▁princip	-2485
aries	-2486
▁status	-2487
odox	-2488
▁britain	-2489
;2&	-2490
▁13	-2491
▁17	-2492
▁give	-2493
▁video	-2494
istan	-2495
dis	-2496
ify	-2497
▁brother	-2498
▁ang	-2499
▁largely	-2500
▁ox	-2501
rel	-2502
sue	-2503
▁occup	-2504
ufact	-2505
▁reform	-2506
▁writer	-2507
ours	-2508
▁***	-2509
▁simple	-2510
▁communic	-2511
▁mathemat	-2512
▁front	-2513
▁writing	-2514
medi	-2515
oman	-2516
▁*19	-2517
▁tour	-2518
▁produce	-2519
▁gl	-2520
▁dyn	-2521
▁displa	-2522
▁gave	-2523
▁[[195	-2524
▁better	-2525
▁keep	-2526
▁things	-2527
comm	-2528
anced	-2529
▁founded	-2530
▁mountain	-2531
nbsp	-2532
▁sun	-2533
▁laws	-2534
haps	-2535
▁products	-2536
▁195	-2537
▁policy	-2538
▁.	-2539
▁manufact	-2540
▁directly	-2541
▁remained	-2542
▁mother	-2543
ires	-2544
▁growth	-2545
▁etc	-2546
▁ris	-2547
▁leaders	-2548
gor	-2549
▁chann	-2550
ties	-2551
usion	-2552
▁journal	-2553
cast	-2554
▁greater	-2555
▁makes	-2556
aged	-2557
charles	-2558
▁experim	-2559
fl	-2560
▁results	-2561
▁california	-2562
▁quick	-2563
bal	-2564
ief	-2565
▁caused	-2566
▁scientific	-2567
▁14	-2568
▁grand	-2569
▁peace	-2570
▁non	-2571
▁behav	-2572
▁companies	-2573
▁towards	-2574
ichael	-2575
ysis	-2576
▁corpor	-2577
▁cri	-2578
▁jews	-2579
▁mostly	-2580
vere	-2581
▁appoint	-2582
▁leading	-2583
polit	-2584
▁bran	-2585
▁possib	-2586
▁bgcolor	-2587
▁da	-2588
▁whole	-2589
▁30	-2590
▁saw	-2591
lands	-2592
hel	-2593
▁suff	-2594
▁lack	-2595
▁definition	-2596
▁issues	-2597
illa	-2598
ought	-2599
jo	-2600
▁latter	-2601
▁likely	-2602
ery	-2603
const	-2604
war	-2605
▁letter	-2606
▁chief	-2607
▁enough	-2608
▁depart	-2609
▁stories	-2610
▁knowledge	-2611
▁cast	-2612
▁smaller	-2613
▁kind	-2614
▁spirit	-2615
ensus	-2616
useum	-2617
▁working	-2618
▁board	-2619
▁killed	-2620
▁ber	-2621
▁destro	-2622
▁perhaps	-2623
▁commercial	-2624
urity	-2625
▁william	-2626
der	-2627
▁colon	-2628
▁provided	-2629
▁territory	-2630
oney	-2631
battle	-2632
▁prize	-2633
▁assemb	-2634
▁indian	-2635
ware	-2636
▁federal	-2637
▁dise	-2638
▁fight	-2639
▁spanish	-2640
▁vo	-2641
▁sen	-2642
pa	-2643
ixed	-2644
▁hon	-2645
▁sources	-2646
▁replaced	-2647
▁appeared	-2648
▁moved	-2649
lis	-2650
▁25	-2651
itar	-2652
itect	-2653
▁highly	-2654
istry	-2655
▁birth	-2656
ilities	-2657
bc	-2658
key	-2659
▁egypt	-2660
▁lines	-2661
▁1990	-2662
odes	-2663
utions	-2664
▁regular	-2665
▁determin	-2666
book	-2667
▁flow	-2668
▁parties	-2669
▁orthodox	-2670
ators	-2671
▁2002	-2672
▁dead	-2673
ricult	-2674
▁museum	-2675
bs	-2676
reen	-2677
▁imm	-2678
▁step	-2679
▁independence	-2680
▁lay	-2681
▁date	-2682
▁hom	-2683
▁done	-2684
▁copy	-2685
▁famil	-2686
▁drug	-2687
▁ireland	-2688
▁implement	-2689
december	-2690
bon	-2691
ipedia	-2692
▁matter	-2693
▁george	-2694
▁length	-2695
▁road	-2696
hib	-2697
rick	-2698
▁:''	-2699
▁green	-2700
▁african	-2701
▁document	-2702
▁bank	-2703
▁rich	-2704
▁night	-2705
▁australia	-2706
▁citiz	-2707
▁nearly	-2708
ban	-2709
esus	-2710
▁establish	-2711
▁pict	-2712
ston	-2713
▁months	-2714
▁section	-2715
▁transport	-2716
▁conse	-2717
▁question	-2718
lying	-2719
asons	-2720
aint	-2721
▁grad	-2722
▁changed	-2723
ned	-2724
▁gas	-2725
▁ten	-2726
ole	-2727
▁era	-2728
pected	-2729
▁dial	-2730
▁surface	-2731
▁holy	-2732
▁rare	-2733
▁divided	-2734
▁hall	-2735
▁course	-2736
▁appears	-2737
▁distinct	-2738
▁increased	-2739
▁prevent	-2740
sych	-2741
▁whom	-2742
▁primary	-2743
▁prime	-2744
▁variety	-2745
▁analysis	-2746
▁del	-2747
▁october	-2748
▁records	-2749
▁rap	-2750
ambig	-2751
▁basis	-2752
▁royal	-2753
▁charles	-2754
▁alph	-2755
augh	-2756
my	-2757
▁metal	-2758
▁cr	-2759
rest	-2760
▁architect	-2761
▁chemical	-2762
iting	-2763
▁career	-2764
▁claims	-2765
▁mention	-2766
rast	-2767
▁wife	-2768
uries	-2769
▁bound	-2770
▁increase	-2771
amic	-2772
▁letters	-2773
▁academ	-2774
▁nation	-2775
▁relatively	-2776
omp	-2777
now	-2778
▁br	-2779
▁bri	-2780
▁classical	-2781
▁sal	-2782
iding	-2783
porary	-2784
vert	-2785
▁italian	-2786
part	-2787
▁frequently	-2788
▁finally	-2789
born	-2790
▁becomes	-2791
▁involved	-2792
uth	-2793
▁[[192	-2794
▁recently	-2795
▁media	-2796
▁average	-2797
▁methods	-2798
▁pie	-2799
ouis	-2800
alled	-2801
▁*/</	-2802
marily	-2803
▁issue	-2804
▁nove	-2805
▁conserv	-2806
robert	-2807
uclear	-2808
▁integ	-2809
▁legisl	-2810
▁weap	-2811
ened	-2812
▁round	-2813
je	-2814
▁takes	-2815
▁religion	-2816
ows	-2817
osp	-2818
ellig	-2819
france	-2820
let	-2821
▁paul	-2822
win	-2823
▁release	-2824
▁references	-2825
cal	-2826
▁ange	-2827
onents	-2828
▁authority	-2829
august	-2830
▁oce	-2831
▁discovered	-2832
▁july	-2833
ob	-2834
mark	-2835
▁mole	-2836
▁conflic	-2837
que	-2838
▁ham	-2839
▁notable	-2840
▁cultural	-2841
▁security	-2842
▁june	-2843
david	-2844
aching	-2845
ription	-2846
▁november	-2847
▁broadcast	-2848
ica	-2849
aign	-2850
▁ast	-2851
▁immedi	-2852
▁;	-2853
▁loss	-2854
▁sequ	-2855
▁programs	-2856
ope	-2857
lant	-2858
▁particip	-2859
▁wat	-2860
▁numerous	-2861
"">{{	-2862
▁expla	-2863
▁animals	-2864
christian	-2865
brew	-2866
dro	-2867
▁dire	-2868
▁laun	-2869
▁henry	-2870
▁colla	-2871
▁collection	-2872
▁commission	-2873
▁private	-2874
▁degree	-2875
4,	-2876
uk	-2877
lit	-2878
▁slow	-2879
▁theore	-2880
▁happ	-2881
gary	-2882
▁students	-2883
hab	-2884
ula	-2885
▁claimed	-2886
▁objects	-2887
▁blue	-2888
▁faith	-2889
japan	-2890
▁1980	-2891
▁ideas	-2892
▁conditions	-2893
▁married	-2894
▁trib	-2895
▁male	-2896
▁medical	-2897
▁decision	-2898
▁september	-2899
time	-2900
▁tar	-2901
▁draw	-2902
▁assist	-2903
▁create	-2904
ste	-2905
clop	-2906
▁quant	-2907
ago	-2908
phil	-2909
pond	-2910
utive	-2911
ai	-2912
itor	-2913
▁existence	-2914
rect	-2915
▁fell	-2916
north	-2917
which	-2918
ulated	-2919
▁institute	-2920
▁fle	-2921
▁pron	-2922
▁creation	-2923
▁sat	-2924
▁seven	-2925
▁evolution	-2926
ari	-2927
▁oil	-2928
public	-2929
▁adopted	-2930
▁campaign	-2931
▁measure	-2932
▁japanese	-2933
▁placed	-2934
▁returned	-2935
▁primarily	-2936
▁address	-2937
▁von	-2938
▁cust	-2939
▁unit	-2940
iverse	-2941
sup	-2942
▁double	-2943
▁alternative	-2944
▁hill	-2945
ousand	-2946
▁cover	-2947
▁thousand	-2948
▁1999	-2949
▁width	-2950
respond	-2951
▁correspond	-2952
▁applied	-2953
▁#[[	-2954
off	-2955
▁lic	-2956
▁sla	-2957
▁phot	-2958
▁vari	-2959
▁magaz	-2960
▁review	-2961
▁location	-2962
▁latin	-2963
▁instance	-2964
▁property	-2965
verted	-2966
▁assum	-2967
▁memory	-2968
▁bud	-2969
canad	-2970
elect	-2971
ney	-2972
▁quite	-2973
russ	-2974
adding	-2975
▁cut	-2976
▁functions	-2977
▁served	-2978
▁street	-2979
▁valign	-2980
▁shown	-2981
▁accepted	-2982
▁unlike	-2983
▁congress	-2984
▁february	-2985
pop	-2986
▁assembly	-2987
▁construction	-2988
▁emerg	-2989
▁older	-2990
▁intellig	-2991
▁mess	-2992
▁myth	-2993
▁conversion	-2994
▁heavy	-2995
▁schools	-2996
▁reported	-2997
pla	-2998
▁frank	-2999
▁freed	-3000
▁machine	-3001
▁additional	-3002
▁====	-3003
▁flight	-3004
▁articles	-3005
▁daugh	-3006
▁incor	-3007
▁smith	-3008
ades	-3009
▁contem	-3010
▁resources	-3011
cend	-3012
▁wik	-3013
▁wall	-3014
▁promot	-3015
▁prior	-3016
▁female	-3017
▁performance	-3018
▁psych	-3019
▁publis	-3020
▁shows	-3021
▁table	-3022
▁obtain	-3023
▁taking	-3024
atin	-3025
▁cub	-3026
▁ple	-3027
▁medic	-3028
▁ocean	-3029
▁experience	-3030
6,	-3031
▁som	-3032
flag	-3033
this	-3034
▁glo	-3035
▁concent	-3036
▁playing	-3037
bia	-3038
lar	-3039
xic	-3040
▁literature	-3041
james	-3042
▁consists	-3043
ask	-3044
▁1.	-3045
▁director	-3046
▁behind	-3047
▁colspan	-3048
▁elections	-3049
▁graph	-3050
january	-3051
▁calcul	-3052
▁electric	-3053
▁]]	-3054
▁gree	-3055
austral	-3056
▁refers	-3057
▁russian	-3058
▁station	-3059
▁universe	-3060
▁nar	-3061
▁affect	-3062
▁arri	-3063
oses	-3064
otland	-3065
▁canadian	-3066
▁something	-3067
ls	-3068
▁break	-3069
▁highest	-3070
▁engineering	-3071
▁decla	-3072
sm	-3073
▁[[2	-3074
▁chap	-3075
▁democratic	-3076
▁money	-3077
▁pay	-3078
▁solid	-3079
▁serious	-3080
▁van	-3081
▁brown	-3082
▁operations	-3083
nic	-3084
▁aspect	-3085
▁virt	-3086
▁digital	-3087
▁surround	-3088
▁leav	-3089
▁invent	-3090
▁derived	-3091
▁recorded	-3092
▁scholars	-3093
▁ability	-3094
▁quickly	-3095
▁rise	-3096
itable	-3097
▁stra	-3098
▁manage	-3099
▁ban	-3100
▁apparent	-3101
germany	-3102
▁temperature	-3103
▁hot	-3104
univers	-3105
▁rapid	-3106
itude	-3107
▁jesus	-3108
▁consum	-3109
▁id	-3110
imal	-3111
july	-3112
▁australian	-3113
mil	-3114
icago	-3115
▁ways	-3116
▁mainly	-3117
▁normal	-3118
▁pressure	-3119
dd	-3120
▁condu	-3121
▁noted	-3122
▁centuries	-3123
▁mac	-3124
▁properties	-3125
▁bow	-3126
▁active	-3127
▁troops	-3128
first	-3129
app	-3130
▁spread	-3131
ghan	-3132
▁comes	-3133
▁centre	-3134
▁levels	-3135
▁powers	-3136
▁passed	-3137
▁versions	-3138
▁native	-3139
▁unique	-3140
▁forced	-3141
las	-3142
airs	-3143
black	-3144
econom	-3145
▁professional	-3146
may	-3147
▁percent	-3148
▁proposed	-3149
div	-3150
cies	-3151
▁sele	-3152
▁estim	-3153
▁compar	-3154
ov	-3155
pper	-3156
▁gal	-3157
▁carry	-3158
mus	-3159
▁distingu	-3160
▁flag	-3161
iant	-3162
▁eu	-3163
▁blood	-3164
▁internet	-3165
▁50	-3166
▁poet	-3167
▁autom	-3168
▁units	-3169
▁champions	-3170
▁performed	-3171
view	-3172
▁san	-3173
▁finan	-3174
thing	-3175
cell	-3176
▁poor	-3177
▁context	-3178
▁individuals	-3179
▁mur	-3180
vation	-3181
▁exact	-3182
▁agricult	-3183
▁bul	-3184
iques	-3185
tical	-3186
▁sett	-3187
org	-3188
▁dan	-3189
foot	-3190
▁mic	-3191
▁irish	-3192
▁channel	-3193
mic	-3194
▁feature	-3195
1,	-3196
where	-3197
▁regions	-3198
reg	-3199
▁via	-3200
▁paper	-3201
▁volume	-3202
▁cele	-3203
fil	-3204
change	-3205
▁approximately	-3206
▁ut	-3207
▁labor	-3208
▁reached	-3209
disambig	-3210
atory	-3211
▁settle	-3212
▁provides	-3213
artin	-3214
▁user	-3215
▁expand	-3216
▁tur	-3217
▁library	-3218
▁necessary	-3219
▁james	-3220
▁removed	-3221
alend	-3222
▁somew	-3223
▁alexander	-3224
▁ath	-3225
▁ult	-3226
ev	-3227
▁gun	-3228
▁*[[197	-3229
▁sexual	-3230
▁places	-3231
▁tax	-3232
onse	-3233
▁ency	-3234
▁regarded	-3235
hat	-3236
▁hu	-3237
undred	-3238
▁interpret	-3239
▁hop	-3240
▁queen	-3241
▁equival	-3242
omin	-3243
▁insp	-3244
▁strateg	-3245
▁sym	-3246
▁asia	-3247
▁repe	-3248
▁threat	-3249
▁background	-3250
2)	-3251
bur	-3252
▁pages	-3253
enth	-3254
▁cle	-3255
inent	-3256
start	-3257
▁file	-3258
1]],	-3259
▁guide	-3260
har	-3261
▁ze	-3262
▁aid	-3263
anned	-3264
ishop	-3265
tee	-3266
▁dark	-3267
▁bal	-3268
▁cred	-3269
▁actress	-3270
▁pattern	-3271
▁techniques	-3272
year	-3273
estic	-3274
▁intended	-3275
▁humans	-3276
▁singer	-3277
▁1,	-3278
4]],	-3279
▁stop	-3280
▁possess	-3281
▁response	-3282
4]])	-3283
pers	-3284
▁fair	-3285
▁plant	-3286
▁defense	-3287
▁wood	-3288
▁census	-3289
▁1998	-3290
central	-3291
▁reject	-3292
▁citizens	-3293
▁encyclop	-3294
▁operating	-3295
mal	-3296
▁equal	-3297
▁appointed	-3298
▁fif	-3299
▁content	-3300
▁progress	-3301
▁bur	-3302
▁corn	-3303
▁demon	-3304
▁introduction	-3305
▁print	-3306
inf	-3307
▁navy	-3308
oura	-3309
such	-3310
▁prec	-3311
▁values	-3312
▁mission	-3313
▁acts	-3314
7,	-3315
▁map	-3316
3,	-3317
iance	-3318
lling	-3319
alendar	-3320
▁demand	-3321
▁bridge	-3322
oseph	-3323
▁disease	-3324
▁purpose	-3325
▁agreement	-3326
▁foundation	-3327
gend	-3328
ising	-3329
onent	-3330
▁(197	-3331
▁baseball	-3332
▁try	-3333
gorith	-3334
▁accomp	-3335
▁tv	-3336
▁[[190	-3337
▁hundred	-3338
▁mind	-3339
▁acqu	-3340
▁bond	-3341
ensity	-3342
▁celebr	-3343
▁instrument	-3344
4)	-3345
3)	-3346
▁tit	-3347
using	-3348
▁deep	-3349
bar	-3350
▁alc	-3351
▁cup	-3352
▁avoid	-3353
▁direction	-3354
▁cand	-3355
ero	-3356
▁rat	-3357
olved	-3358
▁dialect	-3359
september	-3360
▁multiple	-3361
▁transfer	-3362
▁neigh	-3363
▁magazine	-3364
nove	-3365
april	-3366
▁spok	-3367
▁gives	-3368
november	-3369
▁treatment	-3370
▁sus	-3371
▁comment	-3372
▁contrast	-3373
itch	-3374
▁[[2005	-3375
▁extremely	-3376
imum	-3377
▁alphabet	-3378
5)	-3379
▁isl	-3380
▁(1	-3381
▁[[191	-3382
ician	-3383
▁legend	-3384
▁approach	-3385
henry	-3386
ream	-3387
paul	-3388
▁kong	-3389
▁actual	-3390
▁needed	-3391
yond	-3392
▁hous	-3393
▁prince	-3394
ship	-3395
▁ask	-3396
▁stage	-3397
▁*[[194	-3398
▁allows	-3399
▁reading	-3400
▁running	-3401
▁formal	-3402
▁convention	-3403
elf	-3404
▁1970	-3405
▁conne	-3406
▁extra	-3407
▁square	-3408
▁attribut	-3409
.]]	-3410
▁tell	-3411
▁internal	-3412
ino	-3413
rier	-3414
▁politics	-3415
eth	-3416
isms	-3417
▁duke	-3418
izations	-3419
▁bom	-3420
▁activity	-3421
tran	-3422
aw	-3423
▁worked	-3424
▁describe	-3425
lies	-3426
▁billion	-3427
▁boy	-3428
▁liberal	-3429
ech	-3430
▁magn	-3431
▁translation	-3432
▁reb	-3433
▁bring	-3434
october	-3435
▁management	-3436
▁remaining	-3437
▁supported	-3438
▁reve	-3439
▁accur	-3440
▁spain	-3441
spe	-3442
▁*[[196	-3443
from	-3444
latin	-3445
▁eight	-3446
▁beyond	-3447
▁heart	-3448
pel	-3449
rative	-3450
▁bay	-3451
▁enem	-3452
▁protest	-3453
▁songs	-3454
2,	-3455
▁users	-3456
▁useful	-3457
▁chur	-3458
▁musical	-3459
▁churches	-3460
▁scott	-3461
▁stated	-3462
▁daughter	-3463
▁reign	-3464
▁carried	-3465
hic	-3466
▁cart	-3467
▁fish	-3468
▁francis	-3469
▁powerful	-3470
]]:	-3471
▁iv	-3472
february	-3473
3]])	-3474
▁branch	-3475
▁192	-3476
▁starting	-3477
▁computers	-3478
▁contemporary	-3479
font	-3480
riage	-3481
cks	-3482
overy	-3483
reed	-3484
▁brief	-3485
▁completely	-3486
zil	-3487
▁ice	-3488
cluding	-3489
▁financial	-3490
pse	-3491
▁mer	-3492
▁rome	-3493
▁seems	-3494
▁notably	-3495
bour	-3496
perial	-3497
ems	-3498
▁conqu	-3499
do	-3500
padding	-3501
▁algorith	-3502
▁joined	-3503
▁summer	-3504
▁influenced	-3505
▁slight	-3506
▁continue	-3507
bot	-3508
▁usage	-3509
▁figure	-3510
▁advanced	-3511
▁feel	-3512
dp	-3513
alex	-3514
common	-3515
▁inhab	-3516
▁reasons	-3517
▁motion	-3518
gon	-3519
also	-3520
▁dol	-3521
▁weight	-3522
▁previously	-3523
▁applications	-3524
▁follows	-3525
▁specif	-3526
ken	-3527
wise	-3528
▁search	-3529
▁perm	-3530
▁benef	-3531
▁parent	-3532
▁administration	-3533
imens	-3534
▁theories	-3535
ols	-3536
'''&	-3537
▁causes	-3538
▁responsible	-3539
▁sac	-3540
▁washing	-3541
▁difference	-3542
ipp	-3543
▁lived	-3544
▁dynast	-3545
▁signal	-3546
range	-3547
acific	-3548
▁villa	-3549
▁distance	-3550
ously	-3551
▁weak	-3552
▁format	-3553
▁department	-3554
▁vehic	-3555
▁district	-3556
arily	-3557
▁clos	-3558
2]])	-3559
▁tree	-3560
▁spoken	-3561
bi	-3562
olf	-3563
thur	-3564
richard	-3565
▁occurs	-3566
▁somewhat	-3567
px	-3568
indu	-3569
▁attempts	-3570
▁cells	-3571
▁views	-3572
▁muslim	-3573
fficient	-3574
▁reaction	-3575
▁advant	-3576
▁resist	-3577
▁turned	-3578
▁resulting	-3579
film	-3580
great	-3581
▁2006	-3582
▁face	-3583
▁moving	-3584
▁ey	-3585
ollo	-3586
ipment	-3587
▁forest	-3588
▁critical	-3589
▁vow	-3590
march	-3591
▁impact	-3592
▁bab	-3593
▁twent	-3594
▁conflict	-3595
▁governor	-3596
michael	-3597
▁freedom	-3598
▁regional	-3599
8)	-3600
▁race	-3601
astern	-3602
▁becoming	-3603
▁represented	-3604
▁championship	-3605
hum	-3606
mes	-3607
▁jer	-3608
▁indeed	-3609
▁descend	-3610
june	-3611
omic	-3612
▁guitar	-3613
▁compound	-3614
che	-3615
herlands	-3616
▁opposed	-3617
▁pun	-3618
▁frequ	-3619
▁kings	-3620
natural	-3621
▁correct	-3622
▁incorpor	-3623
ortun	-3624
▁else	-3625
7)	-3626
▁immediately	-3627
▁dutch	-3628
▁episode	-3629
▁carbon	-3630
▁copyright	-3631
▁mentioned	-3632
▁woman	-3633
▁equipment	-3634
rap	-3635
nobel	-3636
▁constit	-3637
▁medicine	-3638
▁ended	-3639
▁hours	-3640
england	-3641
ugu	-3642
vin	-3643
orial	-3644
▁bass	-3645
▁synt	-3646
▁failed	-3647
ae	-3648
▁hands	-3649
▁signed	-3650
▁diction	-3651
background	-3652
set	-3653
▁domain	-3654
▁domestic	-3655
▁condition	-3656
▁washington	-3657
class	-3658
▁vote	-3659
▁vary	-3660
▁collect	-3661
▁contract	-3662
▁skill	-3663
phas	-3664
▁max	-3665
antial	-3666
▁intel	-3667
▁astron	-3668
▁speech	-3669
▁monarch	-3670
▁'	-3671
▁easily	-3672
▁die	-3673
ciple	-3674
▁inside	-3675
▁demonst	-3676
fect	-3677
afric	-3678
▁occasion	-3679
6]])	-3680
▁write	-3681
ancient	-3682
▁greatest	-3683
▁activities	-3684
▁mi	-3685
amental	-3686
▁hyp	-3687
▁giving	-3688
▁prefer	-3689
▁behavior	-3690
0&	-3691
▁lif	-3692
▁teams	-3693
cont	-3694
▁notes	-3695
▁share	-3696
western	-3697
▁cry	-3698
▁critics	-3699
gebra	-3700
▁stren	-3701
▁featured	-3702
▁shot	-3703
▁decided	-3704
▁prominent	-3705
aq	-3706
▁doctr	-3707
▁sens	-3708
▁protect	-3709
▁declared	-3710
▁province	-3711
edy	-3712
▁favor	-3713
clus	-3714
▁opt	-3715
▁animal	-3716
▁composed	-3717
▁industrial	-3718
iers	-3719
▁fra	-3720
▁miles	-3721
▁ships	-3722
▁appearance	-3723
▁protection	-3724
▁rough	-3725
5,	-3726
▁heat	-3727
▁retain	-3728
road	-3729
▁ran	-3730
rical	-3731
▁distribution	-3732
fin	-3733
count	-3734
▁equivalent	-3735
▁opposition	-3736
▁encyclopedia	-3737
gn	-3738
eria	-3739
success	-3740
general	-3741
cap	-3742
▁dete	-3743
▁hydro	-3744
0%	-3745
▁los	-3746
president	-3747
;1	-3748
dem	-3749
tele	-3750
▁effic	-3751
▁streng	-3752
▁allowing	-3753
02-	-3754
15:	-3755
itz	-3756
>200	-3757
02-25	-3758
>2002-	-3759
▁defend	-3760
>2002-02-25	-3761
▁intelligence	-3762
▁suc	-3763
ables	-3764
▁custom	-3765
▁contact	-3766
▁succeed	-3767
▁presence	-3768
asy	-3769
hens	-3770
▁combined	-3771
▁compared	-3772
▁earliest	-3773
▁why	-3774
▁dram	-3775
▁quot	-3776
called	-3777
obox	-3778
▁efforts	-3779
aches	-3780
▁month	-3781
▁potential	-3782
▁adapt	-3783
▁candid	-3784
net	-3785
aring	-3786
▁ce	-3787
3]],	-3788
▁phr	-3789
▁models	-3790
uit	-3791
▁fields	-3792
▁entirely	-3793
▁operation	-3794
▁presidential	-3795
▁employ	-3796
▁190	-3797
7]])	-3798
autom	-3799
▁fuel	-3800
▁hero	-3801
▁exists	-3802
▁otherwise	-3803
▁apple	-3804
▁emphas	-3805
▁quality	-3806
▁extensive	-3807
''.	-3808
▁sil	-3809
▁phen	-3810
▁week	-3811
▁climate	-3812
▁phenomen	-3813
▁fans	-3814
▁fast	-3815
▁proved	-3816
▁initial	-3817
▁training	-3818
bl	-3819
2]],	-3820
done	-3821
▁treaty	-3822
6]],	-3823
▁think	-3824
▁calendar	-3825
▁possibly	-3826
▁traditionally	-3827
london	-3828
▁growing	-3829
▁rot	-3830
▁dang	-3831
icated	-3832
asc	-3833
▁pack	-3834
▁bible	-3835
▁solution	-3836
▁announced	-3837
▁[[189	-3838
▁meant	-3839
▁ones	-3840
▁visit	-3841
▁russia	-3842
▁unknown	-3843
▁cellpadding	-3844
elt	-3845
▁und	-3846
▁mere	-3847
▁zeal	-3848
▁police	-3849
▁investig	-3850
▁wars	-3851
▁going	-3852
inet	-3853
▁lake	-3854
▁physics	-3855
ulf	-3856
▁track	-3857
ama	-3858
board	-3859
▁1960	-3860
▁capac	-3861
▁horse	-3862
▁*[[198	-3863
ners	-3864
▁sets	-3865
aled	-3866
▁iron	-3867
▁cam	-3868
▁deli	-3869
▁argued	-3870
bre	-3871
east	-3872
▁bbc	-3873
▁valley	-3874
▁corporation	-3875
alle	-3876
orage	-3877
▁drive	-3878
entially	-3879
military	-3880
▁dynasty	-3881
▁sup	-3882
▁ford	-3883
▁serve	-3884
▁topics	-3885
▁committee	-3886
agn	-3887
▁aim	-3888
▁burn	-3889
thomas	-3890
▁italy	-3891
▁stars	-3892
▁belong	-3893
▁charge	-3894
▁discussion	-3895
▁differences	-3896
▁ruled	-3897
▁gained	-3898
▁improve	-3899
▁marriage	-3900
▁communities	-3901
tar	-3902
▁moon	-3903
▁sex	-3904
▁arms	-3905
▁)	-3906
▁initially	-3907
▁publisher	-3908
▁technical	-3909
▁|--	-3910
fered	-3911
▁camb	-3912
▁goal	-3913
▁bit	-3914
▁crown	-3915
ghanistan	-3916
▁requires	-3917
ink	-3918
▁bod	-3919
▁containing	-3920
bed	-3921
don	-3922
▁runs	-3923
▁chain	-3924
spanish	-3925
▁block	-3926
▁writers	-3927
▁formula	-3928
▁request	-3929
▁effective	-3930
▁greece	-3931
6)	-3932
▁cru	-3933
igned	-3934
▁alle	-3935
social	-3936
▁guard	-3937
▁sites	-3938
wide	-3939
abeth	-3940
▁reduced	-3941
▁expected	-3942
▁principle	-3943
▁standards	-3944
otal	-3945
acing	-3946
1]])	-3947
rate	-3948
▁application	-3949
▁swed	-3950
garian	-3951
▁device	-3952
gra	-3953
gent	-3954
▁says	-3955
▁testament	-3956
1)	-3957
aught	-3958
▁replace	-3959
dra	-3960
▁fant	-3961
▁extended	-3962
▁pure	-3963
antine	-3964
▁understanding	-3965
lantic	-3966
▁screen	-3967
ospel	-3968
▁disk	-3969
▁sports	-3970
▁victory	-3971
▁situation	-3972
▁mid	-3973
▁newsp	-3974
colle	-3975
▁*[[199	-3976
▁plants	-3977
sec	-3978
hold	-3979
▁coal	-3980
▁prison	-3981
▁zealand	-3982
▁directed	-3983
▁arts	-3984
▁bapt	-3985
▁gram	-3986
▁purch	-3987
▁scale	-3988
▁|----	-3989
icted	-3990
▁fully	-3991
▁theat	-3992
▁families	-3993
▁manufacture	-3994
▁anth	-3995
▁audi	-3996
▁rand	-3997
▁dance	-3998
▁achieve	-3999
▁occurred	-4000
▁scotland	-4001
▁description	-4002
rison	-4003
▁coup	-4004
▁master	-4005
▁encoura	-4006
ussel	-4007
iced	-4008
▁quar	-4009
▁debate	-4010
▁nuclear	-4011
mod	-4012
life	-4013
royal	-4014
ibility	-4015
▁circum	-4016
▁ec	-4017
▁crew	-4018
mitted	-4019
▁alcoh	-4020
▁enter	-4021
▁global	-4022
▁portra	-4023
▁slightly	-4024
fred	-4025
▁completed	-4026
▁feet	-4027
▁category	-4028
iring	-4029
▁fort	-4030
▁publish	-4031
▁suggested	-4032
iter	-4033
▁weapons	-4034
▁negative	-4035
▁extend	-4036
▁materials	-4037
ump	-4038
9]])	-4039
name	-4040
▁advent	-4041
▁executive	-4042
▁composer	-4043
▁electronic	-4044
▁popularity	-4045
▁increasingly	-4046
9)	-4047
met	-4048
uguese	-4049
spacing	-4050
▁cellspacing	-4051
iated	-4052
▁adding	-4053
soviet	-4054
▁chall	-4055
▁recognized	-4056
▁enjo	-4057
▁sell	-4058
ulations	-4059
▁attacks	-4060
▁depending	-4061
▁combination	-4062
soft	-4063
▁attention	-4064
inc	-4065
▁robert	-4066
▁exchange	-4067
▁actions	-4068
▁argument	-4069
▁christianity	-4070
▁doub	-4071
▁kept	-4072
▁severe	-4073
▁classes	-4074
cop	-4075
chem	-4076
▁choice	-4077
▁fourth	-4078
▁provin	-4079
▁technique	-4080
free	-4081
▁2005,	-4082
▁positive	-4083
▁christians	-4084
▁determined	-4085
▁answ	-4086
▁brain	-4087
▁windows	-4088
8,	-4089
ites	-4090
▁closely	-4091
▁none	-4092
usal	-4093
oples	-4094
▁peoples	-4095
▁invasion	-4096
astic	-4097
▁alone	-4098
▁entry	-4099
▁compil	-4100
▁typical	-4101
▁dictionary	-4102
▁conservative	-4103
▁armed	-4104
▁resident	-4105
7]],	-4106
▁wil	-4107
▁perman	-4108
▁friends	-4109
▁stations	-4110
▁permanent	-4111
ores	-4112
▁pil	-4113
▁scene	-4114
▁expans	-4115
▁ax	-4116
▁specifically	-4117
▁toward	-4118
▁0.	-4119
▁income	-4120
pression	-4121
▁airport	-4122
second	-4123
▁height	-4124
automated	-4125
▁wikipedia	-4126
▁match	-4127
▁entered	-4128
▁nothing	-4129
▁connected	-4130
▁officially	-4131
aff	-4132
human	-4133
▁manag	-4134
▁continues	-4135
rane	-4136
ients	-4137
▁fest	-4138
▁defeated	-4139
▁destroyed	-4140
mi	-4141
▁flo	-4142
▁attempted	-4143
racy	-4144
▁ren	-4145
▁tal	-4146
▁offered	-4147
date	-4148
▁bad	-4149
ordin	-4150
actions	-4151
▁wild	-4152
▁*[[193	-4153
▁damage	-4154
▁upper	-4155
▁labour	-4156
▁resulted	-4157
ij	-4158
wood	-4159
▁begins	-4160
▁observ	-4161
▁estimated	-4162
ania	-4163
onic	-4164
▁tow	-4165
▁goes	-4166
▁figures	-4167
▁dna	-4168
light	-4169
▁limit	-4170
▁planet	-4171
▁scientists	-4172
9,	-4173
erate	-4174
▁diss	-4175
▁argue	-4176
▁thomas	-4177
▁devices	-4178
▁factors	-4179
▁fundamental	-4180
ivity	-4181
san	-4182
▁universal	-4183
head	-4184
▁adam	-4185
▁ethnic	-4186
▁marked	-4187
conversion	-4188
ote	-4189
▁gar	-4190
▁equation	-4191
▁cold	-4192
▁shall	-4193
▁helped	-4194
football	-4195
bus	-4196
9]],	-4197
link	-4198
ocol	-4199
▁ded	-4200
▁|{{	-4201
▁hong	-4202
▁images	-4203
including	-4204
▁advoc	-4205
▁winter	-4206
▁supreme	-4207
inem	-4208
olar	-4209
▁structures	-4210
43	-4211
ronic	-4212
▁louis	-4213
▁plays	-4214
political	-4215
▁importance	-4216
teen	-4217
xas	-4218
▁holds	-4219
▁illust	-4220
▁existing	-4221
rd	-4222
▁thousands	-4223
▁mathematics	-4224
aper	-4225
▁statement	-4226
▁astronom	-4227
▁anc	-4228
▁row	-4229
cious	-4230
▁hebrew	-4231
▁formation	-4232
hood	-4233
rupt	-4234
▁wal	-4235
active	-4236
rosoft	-4237
▁..	-4238
rency	-4239
republic	-4240
▁justice	-4241
▁student	-4242
▁advantage	-4243
▁lives	-4244
▁buildings	-4245
mas	-4246
▁batt	-4247
iamond	-4248
▁datab	-4249
▁needs	-4250
▁paris	-4251
▁paralle	-4252
▁normally	-4253
▁subsequent	-4254
ga	-4255
▁mary	-4256
▁opin	-4257
▁creating	-4258
mp	-4259
aces	-4260
atell	-4261
▁wealth	-4262
communic	-4263
0)	-4264
lical	-4265
▁focus	-4266
▁opened	-4267
▁territories	-4268
▁(''	-4269
▁[[186	-4270
▁algebra	-4271
▁architecture	-4272
sub	-4273
;0&	-4274
8]],	-4275
arab	-4276
pope	-4277
▁risk	-4278
▁organizations	-4279
rs	-4280
▁ib	-4281
▁string	-4282
▁imperial	-4283
▁generation	-4284
jew	-4285
5]])	-4286
▁inj	-4287
▁send	-4288
encies	-4289
▁*[[195	-4290
▁*[[200	-4291
▁johnson	-4292
▁cards	-4293
▁annual	-4294
▁bor	-4295
hesis	-4296
▁aspects	-4297
▁counter	-4298
▁presented	-4299
8]])	-4300
▁albert	-4301
▁identified	-4302
▁principles	-4303
▁*{{	-4304
▁mom	-4305
▁texts	-4306
▁priest	-4307
ographic	-4308
▁chicago	-4309
▁opening	-4310
▁traditions	-4311
▁atm	-4312
▁expressed	-4313
het	-4314
oly	-4315
▁comic	-4316
▁oxford	-4317
▁concepts	-4318
▁writings	-4319
total	-4320
▁fit	-4321
inian	-4322
▁extent	-4323
▁governments	-4324
star	-4325
▁dro	-4326
▁details	-4327
▁processes	-4328
laim	-4329
rome	-4330
▁|-----	-4331
ieval	-4332
▁adult	-4333
▁output	-4334
▁decades	-4335
▁observed	-4336
▁processing	-4337
▁considerable	-4338
▁controversial	-4339
law	-4340
▁sequence	-4341
▁(196	-4342
▁hence	-4343
▁comics	-4344
ictional	-4345
▁mathematical	-4346
rone	-4347
▁reach	-4348
▁sport	-4349
▁conference	-4350
ref	-4351
▁40	-4352
]]</	-4353
rees	-4354
▁situ	-4355
▁vast	-4356
▁apart	-4357
▁greatly	-4358
▁bird	-4359
rie	-4360
▁ft	-4361
more	-4362
▁agreed	-4363
▁deaths	-4364
ador	-4365
▁dia	-4366
▁rank	-4367
cience	-4368
orders	-4369
▁cycle	-4370
▁fixed	-4371
▁effort	-4372
▁expansion	-4373
▁mountains	-4374
▁subsequently	-4375
▁ali	-4376
▁receive	-4377
▁controversy	-4378
▁24	-4379
▁dip	-4380
▁leave	-4381
▁classic	-4382
▁:*	-4383
iles	-4384
gment	-4385
nam	-4386
▁eli	-4387
quar	-4388
▁chos	-4389
▁grew	-4390
▁spent	-4391
▁urban	-4392
▁raised	-4393
▁display	-4394
▁inhabit	-4395
▁respectively	-4396
▁fill	-4397
▁martin	-4398
▁angeles	-4399
▁controlled	-4400
uck	-4401
irish	-4402
▁price	-4403
▁instruments	-4404
ging	-4405
▁fear	-4406
▁shif	-4407
▁inspired	-4408
▁regarding	-4409
▁historians	-4410
big	-4411
▁kil	-4412
italy	-4413
▁asked	-4414
▁ancest	-4415
▁convent	-4416
▁involve	-4417
ns	-4418
imin	-4419
▁sides	-4420
▁berlin	-4421
▁frequency	-4422
irm	-4423
▁dar	-4424
inton	-4425
canada	-4426
histor	-4427
▁offer	-4428
▁split	-4429
▁wanted	-4430
▁beliefs	-4431
▁2.	-4432
▁voc	-4433
andon	-4434
▁motor	-4435
▁abandon	-4436
▁finland	-4437
▁cambridge	-4438
▁competition	-4439
itation	-4440
▁artists	-4441
▁heavily	-4442
urs	-4443
politics	-4444
▁authors	-4445
ull	-4446
▁gn	-4447
isters	-4448
lectual	-4449
▁path	-4450
14	-4451
51	-4452
lines	-4453
atures	-4454
▁temple	-4455
▁got	-4456
erved	-4457
vered	-4458
ceived	-4459
▁categ	-4460
▁richard	-4461
▁flu	-4462
▁vii	-4463
▁rang	-4464
▁honor	-4465
▁affairs	-4466
▁il	-4467
▁gods	-4468
▁sort	-4469
▁want	-4470
▁positions	-4471
▁experiment	-4472
▁molec	-4473
▁owners	-4474
mad	-4475
▁ages	-4476
▁chosen	-4477
▁shortly	-4478
▁21	-4479
izing	-4480
▁[[188	-4481
▁philosoph	-4482
▁ic	-4483
aded	-4484
▁dog	-4485
▁roughly	-4486
▁identity	-4487
universities	-4488
▁atoms	-4489
▁peter	-4490
▁reflect	-4491
▁characteristics	-4492
▁qual	-4493
▁logic	-4494
▁leaving	-4495
▁musician	-4496
▁cook	-4497
oted	-4498
▁told	-4499
▁diamond	-4500
▁whereas	-4501
▁discovery	-4502
▁secretary	-4503
tion	-4504
▁combat	-4505
size	-4506
zech	-4507
▁...	-4508
alexander	-4509
rif	-4510
▁self	-4511
▁zone	-4512
▁audio	-4513
▁goods	-4514
colleges	-4515
cape	-4516
ructed	-4517
▁artist	-4518
▁leadership	-4519
▁institutions	-4520
2.	-4521
wal	-4522
▁2,	-4523
peter	-4524
▁input	-4525
▁fighting	-4526
▁describes	-4527
band	-4528
▁defeat	-4529
▁literary	-4530
▁mig	-4531
▁closed	-4532
starting	-4533
▁workers	-4534
▁connection	-4535
▁fal	-4536
▁glass	-4537
▁shape	-4538
▁perfect	-4539
▁someone	-4540
geography	-4541
7.	-4542
▁abb	-4543
▁moral	-4544
▁chance	-4545
▁reports	-4546
house	-4547
▁exer	-4548
▁strip	-4549
▁theorem	-4550
▁tun	-4551
▁stone	-4552
▁tried	-4553
science	-4554
▁picture	-4555
▁storage	-4556
▁launched	-4557
▁1996	-4558
mathemat	-4559
▁questions	-4560
gram	-4561
▁cas	-4562
▁minutes	-4563
▁saint	-4564
▁railway	-4565
ips	-4566
▁ens	-4567
▁stay	-4568
▁winning	-4569
ulate	-4570
▁daily	-4571
▁academy	-4572
image	-4573
▁virgin	-4574
▁meeting	-4575
▁policies	-4576
izes	-4577
▁fan	-4578
▁fru	-4579
minal	-4580
▁voice	-4581
▁americans	-4582
▁environmental	-4583
0]])	-4584
mine	-4585
frank	-4586
▁proced	-4587
▁database	-4588
▁determine	-4589
▁communication	-4590
ugal	-4591
▁****	-4592
osexual	-4593
▁geomet	-4594
atically	-4595
▁chapter	-4596
▁fantasy	-4597
▁granted	-4598
▁hab	-4599
▁sty	-4600
ottom	-4601
▁budd	-4602
▁explo	-4603
▁forum	-4604
▁violence	-4605
▁criticism	-4606
▁surrounding	-4607
▁manner	-4608
▁clearly	-4609
▁occasionally	-4610
coln	-4611
▁exam	-4612
mission	-4613
▁brazil	-4614
internet	-4615
▁publication	-4616
iff	-4617
▁pp	-4618
▁adj	-4619
oration	-4620
▁golden	-4621
cult	-4622
sole	-4623
▁bomb	-4624
▁license	-4625
nel	-4626
▁projects	-4627
▁ultimately	-4628
▁merg	-4629
▁supply	-4630
▁cultures	-4631
▁interview	-4632
hu	-4633
oon	-4634
idesp	-4635
▁ends	-4636
wealth	-4637
▁bishop	-4638
▁inform	-4639
▁tribes	-4640
▁widesp	-4641
▁redirect	-4642
▁supposed	-4643
▁biography	-4644
▁translated	-4645
▁widespread	-4646
arc	-4647
agan	-4648
▁cel	-4649
eastern	-4650
▁pieces	-4651
australia	-4652
azi	-4653
ortion	-4654
▁suppor	-4655
▁alleged	-4656
▁similarly	-4657
▁sufficient	-4658
rugg	-4659
quote	-4660
▁exclus	-4661
▁strugg	-4662
▁failure	-4663
▁settlement	-4664
2;	-4665
;1&	-4666
▁senate	-4667
transport	-4668
▁machines	-4669
▁surve	-4670
▁thing	-4671
▁movies	-4672
atellite	-4673
▁neither	-4674
▁189	-4675
small	-4676
▁folk	-4677
▁huge	-4678
▁wear	-4679
▁practical	-4680
▁fat	-4681
▁plans	-4682
▁seats	-4683
chinese	-4684
▁forward	-4685
▁repeated	-4686
oral	-4687
▁battles	-4688
▁soldiers	-4689
television	-4690
los	-4691
▁dimens	-4692
▁showed	-4693
▁influential	-4694
writ	-4695
▁sir	-4696
cules	-4697
licit	-4698
▁atmosp	-4699
▁clinton	-4700
ographics	-4701
▁achieved	-4702
▁interpretation	-4703
▁cu	-4704
▁gdp	-4705
theless	-4706
▁doctrine	-4707
▁communist	-4708
▁nevertheless	-4709
▁imag	-4710
usalem	-4711
▁afghanistan	-4712
▁na	-4713
vard	-4714
▁earl	-4715
▁constitutional	-4716
stood	-4717
▁studied	-4718
▁opposite	-4719
loy	-4720
xico	-4721
water	-4722
▁cars	-4723
emperor	-4724
▁pacific	-4725
▁proceed	-4726
ona	-4727
0]],	-4728
▁saf	-4729
people	-4730
▁immig	-4731
▁*[[192	-4732
apers	-4733
saint	-4734
▁propos	-4735
▁reduce	-4736
▁quarter	-4737
▁showing	-4738
▁appropri	-4739
▁involves	-4740
▁inhabitants	-4741
well	-4742
▁genetic	-4743
▁capacity	-4744
▁practices	-4745
▁1950	-4746
▁edward	-4747
▁movements	-4748
▁apparently	-4749
legal	-4750
olute	-4751
unction	-4752
▁moment	-4753
▁accompan	-4754
ipa	-4755
▁blu	-4756
▁distinction	-4757
hard	-4758
▁bib	-4759
▁gard	-4760
▁cable	-4761
▁message	-4762
operation	-4763
gian	-4764
▁sin	-4765
▁unc	-4766
▁prep	-4767
▁room	-4768
stream	-4769
▁chart	-4770
▁piece	-4771
rictions	-4772
▁covered	-4773
▁islamic	-4774
▁mut	-4775
▁publishing	-4776
10	-4777
▁sav	-4778
field	-4779
▁beaut	-4780
italian	-4781
▁harmon	-4782
▁parents	-4783
tv	-4784
▁iraq	-4785
▁oldest	-4786
▁server	-4787
▁represents	-4788
▁cp	-4789
▁gir	-4790
▁ign	-4791
▁[[187	-4792
▁relation	-4793
▁speakers	-4794
ylon	-4795
▁unus	-4796
▁lands	-4797
▁explos	-4798
▁twenty	-4799
▁origins	-4800
ault	-4801
cles	-4802
▁bodies	-4803
▁massive	-4804
▁suffered	-4805
▁jur	-4806
▁stock	-4807
▁traffic	-4808
30	-4809
▁consequ	-4810
wing	-4811
rence	-4812
▁phrase	-4813
▁ordered	-4814
▁pictures	-4815
▁pronounced	-4816
fam	-4817
icial	-4818
▁tower	-4819
▁safety	-4820
▁strict	-4821
▁reality	-4822
▁organized	-4823
▁rid	-4824
orgia	-4825
bgcolor	-4826
hematic	-4827
▁target	-4828
▁indicate	-4829
ida	-4830
stein	-4831
▁extin	-4832
▁joint	-4833
▁lingu	-4834
▁simpl	-4835
wikipedia	-4836
▁sche	-4837
▁crick	-4838
▁doing	-4839
▁plane	-4840
▁attend	-4841
▁purposes	-4842
▁persons	-4843
▁anything	-4844
▁expanded	-4845
▁obtained	-4846
rete	-4847
▁gib	-4848
relig	-4849
▁sons	-4850
russia	-4851
▁weeks	-4852
▁coming	-4853
▁issued	-4854
▁dispute	-4855
▁hardware	-4856
▁principal	-4857
rong	-4858
adium	-4859
▁factor	-4860
▁learning	-4861
▁exception	-4862
▁drugs	-4863
▁enemy	-4864
▁rates	-4865
▁saying	-4866
▁capable	-4867
▁parallel	-4868
▁worldwide	-4869
=2	-4870
vo	-4871
aism	-4872
▁unable	-4873
▁currency	-4874
▁algorithm	-4875
▁providing	-4876
lom	-4877
▁bush	-4878
▁prem	-4879
disambiguation	-4880
▁cere	-4881
edward	-4882
cons	-4883
▁editor	-4884
▁precise	-4885
▁detailed	-4886
tt	-4887
▁wa	-4888
organ	-4889
▁nine	-4890
▁genre	-4891
▁houses	-4892
▁awarded	-4893
▁density	-4894
▁expression	-4895
▁resistance	-4896
tery	-4897
▁recom	-4898
▁statistics	-4899
▁evil	-4900
▁label	-4901
▁titles	-4902
▁festival	-4903
▁occupied	-4904
▁intellectual	-4905
3.	-4906
ids	-4907
▁usa	-4908
▁brand	-4909
▁dates	-4910
▁francisco	-4911
▁significantly	-4912
prime	-4913
▁(2005	-4914
▁imposs	-4915
▁throne	-4916
vant	-4917
▁mob	-4918
▁beat	-4919
rising	-4920
▁divine	-4921
▁narrow	-4922
▁understood	-4923
dule	-4924
miss	-4925
▁emb	-4926
▁vel	-4927
▁1994	-4928
anning	-4929
▁darwin	-4930
▁alliance	-4931
▁transform	-4932
▁plat	-4933
▁samp	-4934
middle	-4935
▁alcohol	-4936
▁chemistry	-4937
▁representation	-4938
▁cav	-4939
▁dub	-4940
▁seat	-4941
▁merely	-4942
ata	-4943
▁cool	-4944
▁mode	-4945
govern	-4946
▁teach	-4947
▁rarely	-4948
▁advance	-4949
▁refused	-4950
▁stadium	-4951
▁interesting	-4952
▁dav	-4953
▁columbia	-4954
ises	-4955
onom	-4956
ctors	-4957
▁grav	-4958
ception	-4959
▁please	-4960
▁victor	-4961
▁rapidly	-4962
▁teaching	-4963
▁diplom	-4964
▁strength	-4965
▁democracy	-4966
hor	-4967
iar	-4968
▁shar	-4969
▁phase	-4970
tur	-4971
▁christmas	-4972
▁accounts	-4973
▁producing	-4974
▁composition	-4975
▁pair	-4976
▁attra	-4977
▁fleet	-4978
▁negot	-4979
bill	-4980
comple	-4981
▁febru	-4982
▁hypot	-4983
▁killing	-4984
▁rejected	-4985
▁contained	-4986
▁spiritual	-4987
dan	-4988
▁cd	-4989
real	-4990
▁felt	-4991
▁ending	-4992
ygen	-4993
▁staff	-4994
▁strongly	-4995
▁computing	-4996
how	-4997
▁bob	-4998
▁clar	-4999
▁cris	-5000
▁teac	-5001
▁orbit	-5002
▁historically	-5003
▁universities	-5004
▁fame	-5005
▁apply	-5006
▁truth	-5007
▁really	-5008
▁collapse	-5009
▁spring	-5010
▁degrees	-5011
▁symbols	-5012
via	-5013
▁tas	-5014
▁lies	-5015
▁maximum	-5016
▁hydrogen	-5017
lor	-5018
▁[[17	-5019
▁exactly	-5020
▁lincoln	-5021
▁suggests	-5022
▁conscious	-5023
▁representatives	-5024
1.	-5025
▁nick	-5026
▁jones	-5027
▁politician	-5028
17	-5029
han	-5030
▁188	-5031
▁passeng	-5032
▁speaking	-5033
▁succeeded	-5034
▁liqu	-5035
▁austria	-5036
▁engines	-5037
▁philosophical	-5038
5.	-5039
▁isol	-5040
▁founder	-5041
▁village	-5042
succession	-5043
fix	-5044
hetic	-5045
langu	-5046
▁root	-5047
▁2004,	-5048
▁plate	-5049
▁interface	-5050
▁administrative	-5051
log	-5052
▁bes	-5053
▁lad	-5054
▁noun	-5055
▁towns	-5056
▁analog	-5057
▁improved	-5058
▁invented	-5059
▁household	-5060
ffff	-5061
orida	-5062
spain	-5063
▁cham	-5064
▁palest	-5065
▁contest	-5066
▁managed	-5067
▁dialects	-5068
▁essentially	-5069
▁nfl	-5070
early	-5071
▁wave	-5072
ashion	-5073
▁sector	-5074
▁setting	-5075
equ	-5076
▁:&	-5077
▁mal	-5078
ighter	-5079
▁sovere	-5080
▁captured	-5081
▁agriculture	-5082
uate	-5083
▁sole	-5084
▁viewed	-5085
chemical	-5086
▁overall	-5087
▁depression	-5088
▁impossible	-5089
ione	-5090
▁nat	-5091
oring	-5092
unicip	-5093
▁explan	-5094
▁electrical	-5095
.&	-5096
▁wales	-5097
▁shared	-5098
▁respond	-5099
▁theatre	-5100
▁measures	-5101
mend	-5102
▁obv	-5103
works	-5104
▁anti	-5105
▁naval	-5106
▁obvious	-5107
▁essential	-5108
▁professor	-5109
▁recommend	-5110
louis	-5111
▁existed	-5112
▁medieval	-5113
=[[	-5114
ube	-5115
enue	-5116
utch	-5117
▁tens	-5118
▁fought	-5119
▁vision	-5120
▁opportun	-5121
num	-5122
usa	-5123
▁jr	-5124
▁cro	-5125
▁dry	-5126
▁walk	-5127
▁exhib	-5128
akistan	-5129
▁palace	-5130
▁molecules	-5131
eff	-5132
▁colonies	-5133
▁producer	-5134
▁concerning	-5135
▁pus	-5136
apole	-5137
▁components	-5138
▁necessarily	-5139
tts	-5140
etary	-5141
▁athl	-5142
achuse	-5143
▁doctor	-5144
achusetts	-5145
▁academic	-5146
itan	-5147
▁pit	-5148
itors	-5149
▁peak	-5150
▁edits	-5151
▁bottom	-5152
▁rivers	-5153
lymp	-5154
▁rob	-5155
▁gene	-5156
▁calls	-5157
▁olymp	-5158
▁proof	-5159
▁sought	-5160
ses	-5161
▁bact	-5162
russian	-5163
▁orders	-5164
▁assumed	-5165
▁continuous	-5166
▁publications	-5167
5%	-5168
eing	-5169
▁polish	-5170
▁temperatures	-5171
▁vs	-5172
anian	-5173
india	-5174
▁plus	-5175
▁pope	-5176
▁files	-5177
▁juris	-5178
▁route	-5179
▁boston	-5180
▁russel	-5181
▁arrange	-5182
▁portion	-5183
▁selected	-5184
▁commander	-5185
▁recording	-5186
▁define	-5187
▁novels	-5188
▁planned	-5189
▁particles	-5190
odore	-5191
▁fine	-5192
▁grant	-5193
▁score	-5194
japanese	-5195
▁sciences	-5196
▁mythology	-5197
▁developing	-5198
iny	-5199
note	-5200
urally	-5201
▁moore	-5202
ificial	-5203
▁courts	-5204
▁consistent	-5205
▁constructed	-5206
cur	-5207
isbn	-5208
▁eld	-5209
▁hoc	-5210
▁theme	-5211
electric	-5212
▁absolute	-5213
▁protocol	-5214
▁featuring	-5215
oper	-5216
▁coc	-5217
▁shoot	-5218
▁interpre	-5219
▁mechanics	-5220
ports	-5221
▁bear	-5222
▁agency	-5223
▁settled	-5224
▁dedicated	-5225
▁entertain	-5226
▁fr	-5227
otic	-5228
▁feed	-5229
▁pick	-5230
▁democr	-5231
reverted	-5232
▁supporters	-5233
4]].	-5234
state	-5235
▁core	-5236
joseph	-5237
▁penal	-5238
zantine	-5239
▁arthur	-5240
▁historic	-5241
bb	-5242
di	-5243
▁lik	-5244
cript	-5245
itzer	-5246
▁judge	-5247
▁circle	-5248
▁newton	-5249
▁causing	-5250
▁netherlands	-5251
▁sam	-5252
oured	-5253
▁farm	-5254
▁deriv	-5255
▁michael	-5256
nish	-5257
itled	-5258
▁easy	-5259
▁pric	-5260
▁newspaper	-5261
kish	-5262
inity	-5263
=#	-5264
igen	-5265
inea	-5266
▁lun	-5267
▁store	-5268
▁modified	-5269
▁educational	-5270
gun	-5271
▁pan	-5272
▁vowel	-5273
▁taught	-5274
▁expensive	-5275
▁ring	-5276
▁confed	-5277
▁listed	-5278
glas	-5279
▁2005.	-5280
▁physic	-5281
▁[[2005]]	-5282
▁employed	-5283
▁satellite	-5284
▁revolutionary	-5285
▁communications	-5286
)]]	-5287
unt	-5288
wis	-5289
enge	-5290
▁coach	-5291
▁drawn	-5292
▁organis	-5293
▁philosopher	-5294
after	-5295
▁trees	-5296
economy	-5297
▁directory	-5298
▁paid	-5299
▁phon	-5300
▁spend	-5301
▁valid	-5302
▁permit	-5303
▁legislative	-5304
sey	-5305
▁amend	-5306
▁attributed	-5307
▁agricultural	-5308
▁mm	-5309
elve	-5310
phone	-5311
albert	-5312
▁prohib	-5313
▁victim	-5314
▁strategy	-5315
▁distinguish	-5316
iop	-5317
▁mis	-5318
▁trial	-5319
▁conson	-5320
▁desert	-5321
▁retrie	-5322
▁societ	-5323
▁compounds	-5324
▁maintained	-5325
▁appropriate	-5326
bob	-5327
rar	-5328
burg	-5329
inter	-5330
orter	-5331
ifying	-5332
hol	-5333
▁preced	-5334
▁mainstream	-5335
nes	-5336
▁ly	-5337
dutch	-5338
"">:''	-5339
allery	-5340
▁breed	-5341
utation	-5342
▁gospel	-5343
▁manager	-5344
▁researc	-5345
▁mel	-5346
▁unf	-5347
green	-5348
▁([[199	-5349
▁random	-5350
▁amounts	-5351
▁graphics	-5352
att	-5353
▁syn	-5354
▁forth	-5355
▁mixed	-5356
▁fashion	-5357
▁dangerous	-5358
▁provinces	-5359
erson	-5360
notes	-5361
▁scen	-5362
ington	-5363
▁poland	-5364
▁defence	-5365
▁holding	-5366
▁secondary	-5367
va	-5368
▁decre	-5369
▁pione	-5370
▁episodes	-5371
▁explicit	-5372
australian	-5373
▁destruction	-5374
death	-5375
▁stands	-5376
▁designs	-5377
▁dominant	-5378
sim	-5379
▁ago	-5380
▁enfor	-5381
▁tools	-5382
▁captain	-5383
▁minority	-5384
▁crime	-5385
clusion	-5386
▁arrest	-5387
▁scottish	-5388
keley	-5389
▁fram	-5390
▁sounds	-5391
▁contributed	-5392
▁clock	-5393
▁choose	-5394
▁anthrop	-5395
▁ceremon	-5396
▁coordin	-5397
▁visible	-5398
swed	-5399
aming	-5400
china	-5401
ipped	-5402
white	-5403
perors	-5404
▁arrived	-5405
▁superior	-5406
▁separated	-5407
▁mathematic	-5408
onym	-5409
▁adm	-5410
iform	-5411
▁heard	-5412
alo	-5413
jean	-5414
arabic	-5415
▁cinem	-5416
ciation	-5417
▁anyone	-5418
▁jurisd	-5419
riedrich	-5420
▁affected	-5421
▁austrian	-5422
▁criminal	-5423
▁wit	-5424
▁roll	-5425
▁leads	-5426
▁appeal	-5427
▁remove	-5428
▁trying	-5429
▁periods	-5430
▁audience	-5431
▁converted	-5432
▁interests	-5433
▁false	-5434
▁stable	-5435
▁concerned	-5436
▁investment	-5437
▁effectively	-5438
magn	-5439
raham	-5440
▁involving	-5441
communications	-5442
den	-5443
▁60	-5444
cipl	-5445
▁safe	-5446
▁fifth	-5447
▁steel	-5448
canadian	-5449
isf	-5450
jim	-5451
iary	-5452
ilton	-5453
▁dela	-5454
▁expect	-5455
▁partly	-5456
▁terror	-5457
▁municip	-5458
god	-5459
5]],	-5460
▁ein	-5461
▁zero	-5462
▁sales	-5463
▁termin	-5464
▁evolved	-5465
▁straight	-5466
▁component	-5467
▁biological	-5468
ylan	-5469
▁flat	-5470
▁plot	-5471
▁canon	-5472
▁candidate	-5473
▁selection	-5474
▁fer	-5475
▁wis	-5476
▁abol	-5477
igenous	-5478
▁faster	-5479
▁incident	-5480
▁authorities	-5481
dig	-5482
▁os	-5483
gold	-5484
▁pet	-5485
▁ves	-5486
▁talk	-5487
contin	-5488
▁advert	-5489
▁arabic	-5490
▁launch	-5491
▁nearby	-5492
▁opinion	-5493
▁acquired	-5494
▁gradually	-5495
▁distributed	-5496
azz	-5497
jud	-5498
▁eliz	-5499
▁galax	-5500
▁decline	-5501
▁neighbor	-5502
population	-5503
▁documents	-5504
ado	-5505
▁nort	-5506
▁job	-5507
▁worth	-5508
▁networks	-5509
▁relationships	-5510
men	-5511
▁bce	-5512
isine	-5513
▁twice	-5514
▁colony	-5515
▁consisting	-5516
▁republican	-5517
ita	-5518
▁behavi	-5519
▁broken	-5520
▁elimin	-5521
▁weapon	-5522
▁russell	-5523
▁germanic	-5524
▁extension	-5525
▁resolution	-5526
▁[	-5527
aur	-5528
greg	-5529
erick	-5530
inite	-5531
point	-5532
pping	-5533
▁circuit	-5534
amin	-5535
orig	-5536
▁cab	-5537
offic	-5538
▁absor	-5539
▁unusual	-5540
▁revealed	-5541
fem	-5542
vis	-5543
ocks	-5544
uten	-5545
aints	-5546
▁accident	-5547
▁items	-5548
▁learn	-5549
▁roots	-5550
▁sympt	-5551
▁linear	-5552
▁conclud	-5553
▁changing	-5554
▁corresponding	-5555
;[[	-5556
▁bell	-5557
▁pray	-5558
▁save	-5559
herent	-5560
▁bands	-5561
▁chair	-5562
nuclear	-5563
▁comedy	-5564
▁crisis	-5565
▁provision	-5566
▁everything	-5567
▁finished	-5568
aran	-5569
▁sox	-5570
▁aware	-5571
▁notion	-5572
▁israeli	-5573
▁treated	-5574
classical	-5575
▁patients	-5576
▁subjects	-5577
▁dominated	-5578
▁reputation	-5579
▁transition	-5580
sil	-5581
▁hus	-5582
iants	-5583
▁drum	-5584
dr	-5585
▁lot	-5586
▁clust	-5587
▁topic	-5588
igation	-5589
▁apollo	-5590
▁hitler	-5591
▁medium	-5592
▁myster	-5593
▁ministers	-5594
▁supporting	-5595
▁recognition	-5596
who	-5597
▁26	-5598
ards	-5599
▁kore	-5600
indian	-5601
ression	-5602
▁membership	-5603
▁variations	-5604
▁distinguished	-5605
isp	-5606
oke	-5607
▁kg	-5608
cher	-5609
ained	-5610
third	-5611
▁maps	-5612
▁texas	-5613
▁joseph	-5614
▁unless	-5615
▁entitled	-5616
fc	-5617
phys	-5618
hebrew	-5619
jewish	-5620
▁walls	-5621
▁hundreds	-5622
▁incorporated	-5623
▁alt	-5624
▁hal	-5625
inois	-5626
▁*[[191	-5627
▁hockey	-5628
▁vessel	-5629
▁edge	-5630
▁elev	-5631
▁emot	-5632
ressed	-5633
▁index	-5634
▁targe	-5635
▁visual	-5636
py	-5637
ped	-5638
velt	-5639
egypt	-5640
veland	-5641
▁costs	-5642
▁roose	-5643
▁marine	-5644
▁resemb	-5645
▁roosevelt	-5646
zy	-5647
bean	-5648
fare	-5649
user	-5650
itual	-5651
scott	-5652
▁hope	-5653
▁pros	-5654
▁ruth	-5655
ibbean	-5656
▁owned	-5657
▁assass	-5658
▁warfare	-5659
▁platform	-5660
alan	-5661
wiki	-5662
▁task	-5663
aneous	-5664
▁'''[[	-5665
▁ratio	-5666
▁efficient	-5667
▁societies	-5668
▁broadcasting	-5669
spir	-5670
▁excess	-5671
▁racing	-5672
▁rebell	-5673
▁atlantic	-5674
▁186	-5675
female	-5676
▁awards	-5677
▁detect	-5678
▁knight	-5679
▁discipl	-5680
▁fictional	-5681
eu	-5682
pre	-5683
come	-5684
onia	-5685
▁bits	-5686
▁broke	-5687
▁pursu	-5688
▁argent	-5689
▁conver	-5690
▁saints	-5691
▁sister	-5692
▁circumst	-5693
▁vice	-5694
▁codes	-5695
▁recip	-5696
▁youth	-5697
▁anarch	-5698
▁experienced	-5699
▁characteristic	-5700
gg	-5701
fed	-5702
▁clim	-5703
▁dylan	-5704
ropical	-5705
▁identical	-5706
enh	-5707
▁fred	-5708
▁onto	-5709
▁elizabeth	-5710
civil	-5711
▁inno	-5712
▁analy	-5713
▁stored	-5714
▁younger	-5715
▁formally	-5716
▁concentration	-5717
native	-5718
▁chrom	-5719
▁binary	-5720
▁remark	-5721
▁radical	-5722
▁accurate	-5723
▁emperors	-5724
▁measured	-5725
▁abandoned	-5726
▁economics	-5727
▁categories	-5728
agave	-5729
under	-5730
▁layer	-5731
infobox	-5732
▁discover	-5733
▁formerly	-5734
▁lu	-5735
onso	-5736
▁logo	-5737
atomic	-5738
uration	-5739
▁furthermore	-5740
▁3,	-5741
berg	-5742
▁url	-5743
ented	-5744
▁squad	-5745
▁guinea	-5746
▁prepar	-5747
▁radiation	-5748
▁mechanical	-5749
▁institution	-5750
oe	-5751
dou	-5752
idden	-5753
▁rural	-5754
▁andrew	-5755
▁archae	-5756
▁attract	-5757
▁chronic	-5758
▁conduct	-5759
▁substance	-5760
ening	-5761
irmed	-5762
opher	-5763
ackson	-5764
▁occas	-5765
aration	-5766
▁prices	-5767
▁vehicle	-5768
▁sections	-5769
▁vehicles	-5770
dess	-5771
role	-5772
that	-5773
▁soil	-5774
▁bears	-5775
▁leaves	-5776
▁airlines	-5777
▁officials	-5778
▁successor	-5779
▁classified	-5780
▁legislation	-5781
hun	-5782
▁nom	-5783
▁acting	-5784
▁castle	-5785
▁civilization	-5786
▁successfully	-5787
rix	-5788
ohann	-5789
▁bron	-5790
border	-5791
laimed	-5792
▁standing	-5793
▁perceived	-5794
vd	-5795
nia	-5796
▁ga	-5797
iate	-5798
▁mix	-5799
▁sky	-5800
▁swe	-5801
▁goth	-5802
lywood	-5803
ranean	-5804
▁brothers	-5805
▁occupation	-5806
▁substantial	-5807
9.	-5808
▁lee	-5809
africa	-5810
israel	-5811
▁flying	-5812
▁quantum	-5813
▁reforms	-5814
▁patterns	-5815
mo	-5816
51:	-5817
51:15	-5818
pective	-5819
▁finite	-5820
15:51:15	-5821
▁missile	-5822
▁infinite	-5823
sou	-5824
rarr	-5825
▁haw	-5826
▁coll	-5827
▁lists	-5828
▁twelve	-5829
▁hungary	-5830
ucle	-5831
xide	-5832
▁bowl	-5833
▁linked	-5834
▁withdra	-5835
▁geography	-5836
arl	-5837
▁penn	-5838
▁banks	-5839
ta	-5840
mass	-5841
▁crus	-5842
▁chile	-5843
▁mental	-5844
▁equations	-5845
▁succession	-5846
▁classification	-5847
gium	-5848
▁genus	-5849
▁males	-5850
▁ordinary	-5851
▁additionally	-5852
▁establishment	-5853
▁(1999	-5854
▁check	-5855
▁amongst	-5856
▁chamber	-5857
▁matters	-5858
high	-5859
mond	-5860
▁join	-5861
ilbert	-5862
▁train	-5863
▁wrong	-5864
▁*[[190	-5865
▁beings	-5866
▁concerns	-5867
▁committed	-5868
▁homosexual	-5869
▁transportation	-5870
▁,	-5871
▁hosp	-5872
▁sail	-5873
▁pilot	-5874
▁refle	-5875
digital	-5876
▁biology	-5877
▁conducted	-5878
▁increases	-5879
▁opponents	-5880
▁80	-5881
▁[[20	-5882
▁relie	-5883
uous	-5884
burgh	-5885
raltar	-5886
▁(2000	-5887
▁blues	-5888
▁pitch	-5889
apoleon	-5890
ologies	-5891
▁ensure	-5892
▁jackson	-5893
▁symptoms	-5894
▁alternate	-5895
table	-5896
ureau	-5897
▁font	-5898
▁asian	-5899
▁lords	-5900
▁veget	-5901
▁fairly	-5902
▁berkeley	-5903
▁jerusalem	-5904
▁residents	-5905
▁amb	-5906
▁eyes	-5907
▁goddess	-5908
▁collected	-5909
▁phenomenon	-5910
▁possibility	-5911
▁hiv	-5912
francis	-5913
▁heaven	-5914
▁babylon	-5915
▁branches	-5916
2</	-5917
▁cos	-5918
▁dio	-5919
radio	-5920
ropol	-5921
▁1997	-5922
▁decade	-5923
▁wilson	-5924
▁predict	-5925
▁frequent	-5926
ographical	-5927
▁portuguese	-5928
▁error	-5929
▁mouth	-5930
▁subdiv	-5931
official	-5932
▁depends	-5933
▁looking	-5934
▁officer	-5935
▁virtually	-5936
8.	-5937
ana	-5938
ossil	-5939
▁mand	-5940
ffffff	-5941
onesia	-5942
▁colors	-5943
▁romans	-5944
▁complic	-5945
▁restric	-5946
▁serving	-5947
wikitable	-5948
▁franklin	-5949
▁implementation	-5950
ny	-5951
▁eye	-5952
ellow	-5953
iency	-5954
▁carol	-5955
istical	-5956
▁allies	-5957
▁colleges	-5958
▁coalition	-5959
db	-5960
ha	-5961
aska	-5962
▁500	-5963
▁cod	-5964
▁orc	-5965
music	-5966
▁ampl	-5967
ouston	-5968
▁compre	-5969
▁capture	-5970
▁orchest	-5971
opes	-5972
▁abst	-5973
▁poll	-5974
▁watch	-5975
▁oxygen	-5976
▁punish	-5977
philosop	-5978
▁strings	-5979
▁challeng	-5980
▁champion	-5981
bbc	-5982
▁hair	-5983
▁husband	-5984
▁scholar	-5985
nat	-5986
▁skin	-5987
▁2004.	-5988
▁draft	-5989
▁femin	-5990
▁answer	-5991
▁passing	-5992
historical	-5993
iterranean	-5994
ule	-5995
ctic	-5996
fort	-5997
▁cli	-5998
▁regime	-5999
▁reprodu	-6000
▁collabor	-6001
▁[[2005]],	-6002
▁lie	-6003
▁lewis	-6004
▁signs	-6005
▁calvin	-6006
▁danish	-6007
▁infant	-6008
standing	-6009
▁researchers	-6010
ka	-6011
▁3.	-6012
roit	-6013
fully	-6014
video	-6015
▁tact	-6016
▁agent	-6017
▁manif	-6018
▁explain	-6019
▁produces	-6020
▁parliamentary	-6021
rank	-6022
▁fox	-6023
▁crow	-6024
▁hell	-6025
▁valu	-6026
apollo	-6027
▁rival	-6028
rations	-6029
▁dropped	-6030
▁emerged	-6031
▁assigned	-6032
ees	-6033
ares	-6034
base	-6035
orph	-6036
▁pier	-6037
▁poly	-6038
ishops	-6039
▁depos	-6040
▁budget	-6041
▁select	-6042
▁styles	-6043
▁operated	-6044
▁instruction	-6045
sa	-6046
tem	-6047
urt	-6048
▁eat	-6049
aging	-6050
▁wing	-6051
▁licens	-6052
▁attached	-6053
▁partners	-6054
▁preferred	-6055
▁accessdate	-6056
ini	-6057
ctrum	-6058
▁cuba	-6059
▁holid	-6060
▁spectrum	-6061
▁williams	-6062
▁retrieved	-6063
bles	-6064
treat	-6065
▁alleg	-6066
▁arbit	-6067
▁meters	-6068
▁judaism	-6069
▁arguments	-6070
▁ari	-6071
▁mir	-6072
commun	-6073
african	-6074
foreign	-6075
▁executed	-6076
▁certainly	-6077
▁mechanism	-6078
82	-6079
;3	-6080
igan	-6081
rock	-6082
▁genes	-6083
▁moves	-6084
▁throw	-6085
▁yield	-6086
ichigan	-6087
▁pronun	-6088
▁identify	-6089
▁circumstances	-6090
▁pra	-6091
▁gate	-6092
ession	-6093
▁falls	-6094
▁interior	-6095
dden	-6096
▁pul	-6097
▁1]],	-6098
andria	-6099
▁shell	-6100
▁interv	-6101
▁starring	-6102
▁thinking	-6103
▁conventional	-6104
pal	-6105
▁23	-6106
appe	-6107
iment	-6108
omial	-6109
▁steps	-6110
▁atmosphere	-6111
▁consumption	-6112
transportation	-6113
gger	-6114
helm	-6115
▁bind	-6116
▁drin	-6117
▁exerc	-6118
▁closer	-6119
▁autonom	-6120
▁destroy	-6121
city	-6122
eeee	-6123
ownt	-6124
▁thir	-6125
eeeeee	-6126
▁liquid	-6127
▁uniform	-6128
pet	-6129
aker	-6130
hess	-6131
▁rum	-6132
uther	-6133
▁hole	-6134
▁sand	-6135
ructure	-6136
▁studio	-6137
▁colonial	-6138
▁historian	-6139
uls	-6140
game	-6141
ican	-6142
lake	-6143
rain	-6144
resh	-6145
final	-6146
▁1930	-6147
▁rose	-6148
▁tall	-6149
▁revol	-6150
▁allied	-6151
▁bureau	-6152
▁limits	-6153
▁calling	-6154
▁definitions	-6155
lav	-6156
▁cia	-6157
power	-6158
▁shap	-6159
although	-6160
▁conquest	-6161
▁einstein	-6162
▁solutions	-6163
▁psychology	-6164
▁requirements	-6165
>2	-6166
din	-6167
ios	-6168
jan	-6169
▁poem	-6170
▁canal	-6171
▁egyptian	-6172
▁literally	-6173
▁facilities	-6174
>#	-6175
pat	-6176
democ	-6177
going	-6178
▁mobile	-6179
▁carrier	-6180
▁drawing	-6181
▁renamed	-6182
▁ministry	-6183
▁boys	-6184
▁spect	-6185
▁(1998)	-6186
▁signals	-6187
▁explained	-6188
▁offensive	-6189
▁comprehens	-6190
▁explanation	-6191
ola	-6192
sam	-6193
labor	-6194
▁beer	-6195
▁albums	-6196
▁edited	-6197
▁characterized	-6198
anto	-6199
jack	-6200
iling	-6201
▁anch	-6202
▁fasc	-6203
▁laid	-6204
▁synd	-6205
▁escape	-6206
▁themes	-6207
▁winner	-6208
▁worship	-6209
▁divisions	-6210
▁preserved	-6211
gene	-6212
sula	-6213
ubst	-6214
▁drop	-6215
▁trust	-6216
▁benefit	-6217
▁insubst	-6218
▁residence	-6219
▁populations	-6220
▁insubstantial	-6221
what	-6222
▁191	-6223
▁300	-6224
▁(193	-6225
▁votes	-6226
▁violent	-6227
▁illinois	-6228
alph	-6229
▁fis	-6230
▁crop	-6231
inople	-6232
▁adams	-6233
▁facts	-6234
▁sacrif	-6235
▁organisms	-6236
▁referring	-6237
▁experiments	-6238
unk	-6239
ache	-6240
▁firm	-6241
▁murd	-6242
treaty	-6243
▁doesn	-6244
▁solar	-6245
▁florida	-6246
▁variant	-6247
ading	-6248
▁infl	-6249
modern	-6250
▁react	-6251
▁veloc	-6252
▁representing	-6253
▁]	-6254
▁!!	-6255
ancy	-6256
iful	-6257
group	-6258
▁northe	-6259
▁borders	-6260
▁coastal	-6261
▁dioxide	-6262
▁reserve	-6263
▁witness	-6264
▁spelling	-6265
▁influences	-6266
ordon	-6267
▁dies	-6268
▁hits	-6269
bishop	-6270
▁learned	-6271
ipe	-6272
iled	-6273
▁usual	-6274
kingdom	-6275
▁dollar	-6276
▁gibraltar	-6277
▁hungarian	-6278
▁federation	-6279
▁continental	-6280
▁descendants	-6281
rose	-6282
▁enh	-6283
▁rout	-6284
▁stan	-6285
▁begun	-6286
jection	-6287
▁visited	-6288
holy	-6289
▁seek	-6290
chicago	-6291
▁buried	-6292
▁cinema	-6293
▁exceed	-6294
▁februar	-6295
▁opponent	-6296
▁assistance	-6297
▁%	-6298
43:	-6299
isot	-6300
vict	-6301
▁aer	-6302
43:11	-6303
aling	-6304
▁hind	-6305
▁mist	-6306
victor	-6307
▁expos	-6308
▁hindu	-6309
▁nucle	-6310
▁desire	-6311
▁easier	-6312
15:43:11	-6313
quarters	-6314
▁finding	-6315
▁officers	-6316
ben	-6317
▁mr	-6318
6]].	-6319
▁verb	-6320
▁celtic	-6321
▁elsewhere	-6322
▁locations	-6323
▁religions	-6324
▁22	-6325
liber	-6326
▁owner	-6327
▁atomic	-6328
▁approved	-6329
▁boundaries	-6330
▁substances	-6331
but	-6332
▁1920	-6333
▁cape	-6334
▁birds	-6335
▁[[1990	-6336
▁copies	-6337
▁construct	-6338
▁declaration	-6339
▁[[3	-6340
▁dece	-6341
▁(2003	-6342
owntown	-6343
▁agents	-6344
▁overse	-6345
▁geometry	-6346
▁consciousness	-6347
mann	-6348
▁tor	-6349
solete	-6350
▁clean	-6351
▁satisf	-6352
▁stream	-6353
▁switch	-6354
▁forming	-6355
▁printed	-6356
▁difficulty	-6357
▁statements	-6358
1]].	-6359
osis	-6360
rics	-6361
▁din	-6362
▁infe	-6363
▁inser	-6364
▁vector	-6365
▁swedish	-6366
▁disorder	-6367
cers	-6368
▁neut	-6369
insula	-6370
▁apost	-6371
▁grown	-6372
▁colour	-6373
▁murder	-6374
▁markets	-6375
▁persian	-6376
▁peninsula	-6377
cccc	-6378
▁reli	-6379
▁nomin	-6380
▁protein	-6381
▁attacked	-6382
▁survived	-6383
max	-6384
anta	-6385
▁proc	-6386
▁horiz	-6387
▁millenn	-6388
▁passage	-6389
▁trading	-6390
itzerland	-6391
▁attended	-6392
▁particle	-6393
jer	-6394
oles	-6395
onal	-6396
times	-6397
▁1940	-6398
▁dict	-6399
▁davis	-6400
▁giant	-6401
▁ideal	-6402
▁lunar	-6403
▁varies	-6404
northern	-6405
▁struggle	-6406
▁protestant	-6407
umin	-6408
▁gif	-6409
earth	-6410
iations	-6411
▁offers	-6412
▁southe	-6413
▁balance	-6414
▁diverse	-6415
government	-6416
▁(2	-6417
▁lect	-6418
▁sund	-6419
▁depict	-6420
ropolitan	-6421
▁familiar	-6422
▁partially	-6423
otes	-6424
celer	-6425
paris	-6426
▁prove	-6427
▁trend	-6428
▁acceler	-6429
▁[[2004]]	-6430
3]].	-6431
▁camer	-6432
▁ruler	-6433
▁[[1970	-6434
▁simult	-6435
▁absence	-6436
▁cricket	-6437
▁illegal	-6438
▁virtual	-6439
▁founding	-6440
▁predomin	-6441
▁decisions	-6442
bu	-6443
▁ba	-6444
itage	-6445
▁1992	-6446
▁mixt	-6447
arthur	-6448
▁skills	-6449
▁bishops	-6450
▁landing	-6451
▁bacteria	-6452
▁columbus	-6453
▁resource	-6454
▁naturally	-6455
▁variation	-6456
demographics	-6457
▁pronunciation	-6458
80	-6459
2]].	-6460
▁sev	-6461
iration	-6462
mathematics	-6463
uge	-6464
ooth	-6465
bered	-6466
ennis	-6467
▁bang	-6468
▁fled	-6469
▁lakes	-6470
country	-6471
▁births	-6472
▁covers	-6473
▁poetry	-6474
▁refuge	-6475
▁sweden	-6476
▁getting	-6477
▁variable	-6478
▁ack	-6479
block	-6480
▁nazi	-6481
▁util	-6482
▁touch	-6483
▁wound	-6484
▁basque	-6485
▁mexico	-6486
▁charged	-6487
▁partner	-6488
▁planning	-6489
▁percentage	-6490
▁commonwealth	-6491
▁manufacturing	-6492
syl	-6493
bell	-6494
▁sle	-6495
▁solo	-6496
gments	-6497
▁islam	-6498
▁kinds	-6499
▁operate	-6500
▁channels	-6501
▁emphasis	-6502
▁tone	-6503
▁regardless	-6504
▁entertainment	-6505
fr	-6506
ya	-6507
neg	-6508
▁cited	-6509
▁doubt	-6510
capital	-6511
▁highway	-6512
▁reconst	-6513
▁discussed	-6514
▁electrons	-6515
▁reactions	-6516
▁transmission	-6517
▁comprehensive	-6518
▁pu	-6519
stal	-6520
icide	-6521
▁beach	-6522
▁clubs	-6523
▁czech	-6524
▁plain	-6525
▁abbrev	-6526
▁excell	-6527
▁export	-6528
▁stress	-6529
▁commons	-6530
▁keeping	-6531
▁indicates	-6532
▁originated	-6533
bud	-6534
▁bos	-6535
▁(2004	-6536
▁tells	-6537
▁*[[189	-6538
▁dating	-6539
▁stages	-6540
▁meanings	-6541
▁indigenous	-6542
lem	-6543
▁1995	-6544
▁hills	-6545
▁inner	-6546
▁sharp	-6547
▁armies	-6548
▁campus	-6549
▁accused	-6550
▁grounds	-6551
▁prepared	-6552
▁virginia	-6553
umes	-6554
▁paint	-6555
▁storm	-6556
culture	-6557
▁carrying	-6558
▁dependent	-6559
▁fly	-6560
▁diet	-6561
▁relat	-6562
▁filled	-6563
ologists	-6564
▁cuisine	-6565
▁testing	-6566
▁confused	-6567
▁diseases	-6568
▁hamilton	-6569
▁happened	-6570
christianity	-6571
da	-6572
ii	-6573
=200	-6574
▁ven	-6575
▁didn	-6576
▁opera	-6577
scottish	-6578
52	-6579
▁rhy	-6580
martin	-6581
▁comed	-6582
▁magnetic	-6583
▁vertical	-6584
arus	-6585
sect	-6586
sour	-6587
thew	-6588
grand	-6589
▁chess	-6590
▁garden	-6591
▁losing	-6592
▁seemed	-6593
▁serves	-6594
▁spaces	-6595
▁biblical	-6596
▁credited	-6597
▁confirmed	-6598
▁corporate	-6599
▁diplomatic	-6600
▁technologies	-6601
▁pc	-6602
illy	-6603
▁1]]	-6604
lanta	-6605
orses	-6606
while	-6607
▁1993	-6608
▁column	-6609
▁horses	-6610
▁lowest	-6611
▁keyboard	-6612
▁manifest	-6613
▁implemented	-6614
6.	-6615
99	-6616
licate	-6617
▁roles	-6618
▁selling	-6619
▁democrats	-6620
▁headquarters	-6621
▁instructions	-6622
▁philosophers	-6623
▁ibm	-6624
▁knew	-6625
cement	-6626
johann	-6627
▁angle	-6628
▁blind	-6629
▁tracks	-6630
▁enemies	-6631
▁grammar	-6632
▁harvard	-6633
▁playoff	-6634
▁physicist	-6635
netherlands	-6636
;.	-6637
die	-6638
norm	-6639
▁hour	-6640
▁daniel	-6641
▁notice	-6642
▁survey	-6643
▁descent	-6644
▁afterwards	-6645
asia	-6646
antly	-6647
hydro	-6648
robot	-6649
▁corps	-6650
▁fruit	-6651
▁laure	-6652
▁immigr	-6653
▁logical	-6654
▁muslims	-6655
▁continent	-6656
hom	-6657
kes	-6658
squ	-6659
open	-6660
sche	-6661
▁ark	-6662
▁hub	-6663
▁germ	-6664
▁fresh	-6665
▁funds	-6666
colspan	-6667
▁engage	-6668
▁kilome	-6669
▁downtown	-6670
▁artificial	-6671
▁exclusively	-6672
]]&	-6673
iah	-6674
occ	-6675
▁dvd	-6676
▁guns	-6677
▁batman	-6678
microsoft	-6679
▁regularly	-6680
sen	-6681
ansas	-6682
prise	-6683
▁girl	-6684
▁trou	-6685
▁2001,	-6686
▁manus	-6687
▁sudden	-6688
▁waters	-6689
economic	-6690
▁females	-6691
▁heritage	-6692
▁complexity	-6693
▁continuing	-6694
▁manuscript	-6695
constitution	-6696
▁experimental	-6697
▁pian	-6698
▁arist	-6699
▁turns	-6700
▁[[1980	-6701
▁yellow	-6702
▁consult	-6703
asa	-6704
▁obl	-6705
▁earn	-6706
▁newly	-6707
▁briefly	-6708
▁moreover	-6709
▁commentary	-6710
▁laboratory	-6711
gues	-6712
sylv	-6713
▁(195	-6714
animal	-6715
▁fellow	-6716
▁margin	-6717
lication	-6718
sylvania	-6719
▁followers	-6720
▁generated	-6721
▁bru	-6722
▁jazz	-6723
doctor	-6724
abilities	-6725
▁velocity	-6726
▁restricted	-6727
47	-6728
5</	-6729
emp	-6730
▁inn	-6731
▁----	-6732
▁bern	-6733
▁forb	-6734
carbon	-6735
family	-6736
▁intent	-6737
▁rising	-6738
▁retired	-6739
▁survive	-6740
▁behaviour	-6741
▁distinctive	-6742
▁perspective	-6743
▁187	-6744
▁gri	-6745
▁|19	-6746
▁wish	-6747
▁2003,	-6748
▁announ	-6749
▁donald	-6750
▁focused	-6751
▁beautiful	-6752
▁protected	-6753
▁hypothesis	-6754
wash	-6755
▁vac	-6756
▁cloth	-6757
▁essay	-6758
▁mayor	-6759
▁shift	-6760
persian	-6761
▁starts	-6762
▁painter	-6763
washington	-6764
▁industries	-6765
]]'	-6766
aves	-6767
anton	-6768
▁clin	-6769
academ	-6770
▁goals	-6771
ulating	-6772
▁disappe	-6773
▁profile	-6774
▁augustus	-6775
▁ultimate	-6776
▁possession	-6777
▁accompanied	-6778
▁interaction	-6779
vi	-6780
long	-6781
jamin	-6782
▁soul	-6783
church	-6784
▁bases	-6785
▁merged	-6786
▁assault	-6787
▁promote	-6788
▁seasons	-6789
▁memorial	-6790
▁execution	-6791
▁microsoft	-6792
▁responsibility	-6793
pm	-6794
▁4,	-6795
▁bin	-6796
▁buy	-6797
▁eigh	-6798
▁tool	-6799
▁ritual	-6800
▁slowly	-6801
▁strike	-6802
▁cabinet	-6803
▁hospital	-6804
▁reducing	-6805
▁revision	-6806
▁situations	-6807
df	-6808
jul	-6809
▁odd	-6810
▁stret	-6811
usually	-6812
▁minimum	-6813
▁boundary	-6814
▁painting	-6815
▁alexandria	-6816
▁observations	-6817
▁arc	-6818
▁exc	-6819
▁*200	-6820
▁ment	-6821
▁rain	-6822
▁surp	-6823
▁biggest	-6824
▁longest	-6825
▁performing	-6826
▁relativity	-6827
▁theoretical	-6828
▁transferred	-6829
/1	-6830
ava	-6831
gre	-6832
osh	-6833
sid	-6834
ups	-6835
▁fu	-6836
grad	-6837
ieth	-6838
male	-6839
asure	-6840
eless	-6841
▁athe	-6842
wegian	-6843
▁2000,	-6844
▁abuse	-6845
▁chose	-6846
▁inher	-6847
▁patri	-6848
ruption	-6849
▁ethics	-6850
▁ethiop	-6851
▁cartoon	-6852
▁concert	-6853
▁dismiss	-6854
▁inflation	-6855
▁q	-6856
oud	-6857
lord	-6858
rors	-6859
sing	-6860
antum	-6861
▁jack	-6862
quantum	-6863
▁differ	-6864
▁exports	-6865
▁turkish	-6866
▁annivers	-6867
▁everyone	-6868
▁rational	-6869
▁phenomena	-6870
▁celebrated	-6871
▁comparison	-6872
aly	-6873
istle	-6874
hammad	-6875
▁drink	-6876
▁fluid	-6877
▁[[1960	-6878
▁voting	-6879
▁depicted	-6880
▁restrictions	-6881
sis	-6882
prus	-6883
ostic	-6884
▁info	-6885
pelled	-6886
▁charges	-6887
▁germans	-6888
▁unfortun	-6889
▁receiving	-6890
▁encouraged	-6891
▁developments	-6892
▁mathematician	-6893
▁euro	-6894
▁gets	-6895
▁papers	-6896
▁senior	-6897
▁sunday	-6898
scotland	-6899
▁contrary	-6900
▁procedure	-6901
elsh	-6902
tony	-6903
short	-6904
vador	-6905
▁suit	-6906
rating	-6907
▁frame	-6908
▁tests	-6909
issance	-6910
▁michigan	-6911
▁notation	-6912
ilst	-6913
inth	-6914
▁jul	-6915
▁exped	-6916
▁floor	-6917
▁scand	-6918
▁favour	-6919
▁howard	-6920
▁prayer	-6921
▁regist	-6922
▁whilst	-6923
▁offices	-6924
▁covering	-6925
▁mainland	-6926
▁describing	-6927
▁kilometers	-6928
▁considerably	-6929
eds	-6930
▁cra	-6931
former	-6932
▁heads	-6933
▁organic	-6934
eta	-6935
mount	-6936
place	-6937
▁cogn	-6938
▁penalty	-6939
▁weather	-6940
▁isolated	-6941
▁confusion	-6942
▁ownership	-6943
lla	-6944
▁\,	-6945
▁ton	-6946
books	-6947
plate	-6948
▁1991	-6949
▁bruce	-6950
▁races	-6951
▁scenes	-6952
anda	-6953
ints	-6954
▁400	-6955
▁lady	-6956
▁sure	-6957
▁bonds	-6958
▁condem	-6959
▁patient	-6960
▁varying	-6961
▁pakistan	-6962
▁engineers	-6963
▁consequently	-6964
▁manufacturers	-6965
gal	-6966
rates	-6967
semit	-6968
▁tiss	-6969
▁acknow	-6970
▁compat	-6971
▁therap	-6972
▁subdivision	-6973
cel	-6974
9]].	-6975
▁dun	-6976
ribed	-6977
▁compr	-6978
▁korea	-6979
▁merch	-6980
section	-6981
▁claiming	-6982
▁retained	-6983
▁electoral	-6984
▁translations	-6985
5]].	-6986
▁jump	-6987
▁loyal	-6988
▁mouse	-6989
▁angels	-6990
▁bright	-6991
▁rulers	-6992
▁mixture	-6993
▁tourism	-6994
▁passenger	-6995
▁rebellion	-6996
▁demonstrated	-6997
▁massachusetts	-6998
:#	-6999
ques	-7000
▁tank	-7001
▁motiv	-7002
▁roads	-7003
▁approval	-7004
▁properly	-7005
▁musicians	-7006
▁interested	-7007
▁underground	-7008
tom	-7009
gree	-7010
athan	-7011
erals	-7012
later	-7013
▁enorm	-7014
▁medal	-7015
▁disney	-7016
▁engaged	-7017
▁gravity	-7018
▁declined	-7019
▁syndrome	-7020
▁specialized	-7021
▁statistical	-7022
ads	-7023
cia	-7024
iti	-7025
sun	-7026
▁lb	-7027
test	-7028
queen	-7029
vative	-7030
▁baron	-7031
▁prede	-7032
▁pruss	-7033
loyment	-7034
▁actors	-7035
aneously	-7036
▁chairman	-7037
▁challenge	-7038
▁immediate	-7039
▁investigation	-7040
ibn	-7041
iga	-7042
▁bah	-7043
▁gay	-7044
▁|[[	-7045
▁buff	-7046
▁hier	-7047
▁spot	-7048
▁expert	-7049
▁lesser	-7050
▁scheme	-7051
▁hierarch	-7052
▁molecule	-7053
▁reaching	-7054
▁variants	-7055
▁advertising	-7056
nty	-7057
uled	-7058
▁axi	-7059
ignty	-7060
▁lose	-7061
living	-7062
▁subur	-7063
rection	-7064
▁lyrics	-7065
▁silver	-7066
▁georgia	-7067
▁revised	-7068
▁overseas	-7069
▁proteins	-7070
▁[[2004]],	-7071
▁scientist	-7072
4.	-7073
mel	-7074
▁oh	-7075
▁11,	-7076
▁hip	-7077
inger	-7078
roleum	-7079
▁acids	-7080
itarian	-7081
▁drives	-7082
▁greeks	-7083
▁denmark	-7084
▁explore	-7085
▁restored	-7086
▁valuable	-7087
portuguese	-7088
aac	-7089
wid	-7090
lind	-7091
some	-7092
▁mas	-7093
there	-7094
width	-7095
▁dale	-7096
▁2000.	-7097
▁vowels	-7098
▁portugal	-7099
▁conquered	-7100
▁molecular	-7101
▁candidates	-7102
▁probability	-7103
ca	-7104
awb	-7105
oty	-7106
you	-7107
blue	-7108
▁sax	-7109
chang	-7110
▁wire	-7111
donald	-7112
square	-7113
▁athle	-7114
▁dynam	-7115
▁faced	-7116
▁versus	-7117
▁houston	-7118
▁teacher	-7119
▁tropical	-7120
▁excellent	-7121
▁opportunity	-7122
▁contributions	-7123
cd	-7124
▁(&	-7125
antic	-7126
etics	-7127
▁sale	-7128
▁outer	-7129
▁waves	-7130
▁option	-7131
▁horizon	-7132
▁olympic	-7133
▁municipal	-7134
=0	-7135
raf	-7136
▁mit	-7137
▁marx	-7138
▁rend	-7139
▁finish	-7140
▁counties	-7141
▁establishing	-7142
aken	-7143
card	-7144
step	-7145
▁gone	-7146
▁viii	-7147
▁banned	-7148
▁socialist	-7149
▁integrated	-7150
oil	-7151
roll	-7152
eline	-7153
atever	-7154
▁unity	-7155
▁borrow	-7156
▁secure	-7157
▁termed	-7158
▁carolina	-7159
▁judicial	-7160
▁whatever	-7161
california	-7162
philosophy	-7163
▁interpreted	-7164
abul	-7165
alry	-7166
▁drew	-7167
▁arran	-7168
▁(1997)	-7169
▁cavalry	-7170
▁victims	-7171
▁experiences	-7172
▁evolutionary	-7173
gers	-7174
▁cow	-7175
alpha	-7176
ateur	-7177
ricts	-7178
▁blow	-7179
▁morn	-7180
▁credit	-7181
▁tribut	-7182
▁devoted	-7183
▁finnish	-7184
▁gallery	-7185
▁morning	-7186
▁turning	-7187
wikiquote	-7188
▁defensive	-7189
▁districts	-7190
▁connections	-7191
▁replacement	-7192
iver	-7193
▁les	-7194
▁spr	-7195
garia	-7196
▁enab	-7197
▁croat	-7198
playing	-7199
▁sacred	-7200
inations	-7201
▁streets	-7202
▁artistic	-7203
▁harrison	-7204
▁humanity	-7205
▁reduction	-7206
▁criticized	-7207
▁designated	-7208
▁representative	-7209
och	-7210
carl	-7211
data	-7212
good	-7213
lican	-7214
▁looks	-7215
atlantic	-7216
▁adapted	-7217
▁substit	-7218
▁benefits	-7219
40	-7220
des	-7221
adel	-7222
enna	-7223
oked	-7224
acent	-7225
▁mail	-7226
▁mort	-7227
▁array	-7228
▁camps	-7229
▁costa	-7230
▁compla	-7231
▁consec	-7232
▁passes	-7233
▁routes	-7234
standard	-7235
▁deliber	-7236
▁restaur	-7237
▁adjacent	-7238
▁sentence	-7239
lad	-7240
▁sop	-7241
▁stim	-7242
mology	-7243
▁atari	-7244
▁atlas	-7245
▁exile	-7246
liberal	-7247
▁bronze	-7248
▁cancer	-7249
▁infect	-7250
▁titled	-7251
mination	-7252
▁situated	-7253
▁36	-7254
lium	-7255
steve	-7256
super	-7257
▁shut	-7258
intosh	-7259
▁eleph	-7260
▁poems	-7261
▁([[200	-7262
▁module	-7263
▁contrad	-7264
▁strictly	-7265
▁comparative	-7266
▁compression	-7267
ey	-7268
kins	-7269
erves	-7270
▁monu	-7271
idency	-7272
▁*[[17	-7273
▁pairs	-7274
▁compact	-7275
▁douglas	-7276
▁stopped	-7277
ali	-7278
riers	-7279
▁dual	-7280
▁gulf	-7281
▁tape	-7282
▁[[1950	-7283
▁assume	-7284
▁driven	-7285
▁duties	-7286
▁fossil	-7287
▁baptism	-7288
▁operator	-7289
▁salvador	-7290
▁cleveland	-7291
sol	-7292
▁mu	-7293
bian	-7294
iege	-7295
▁dup	-7296
▁fix	-7297
▁kenn	-7298
▁warm	-7299
▁tourn	-7300
▁jersey	-7301
riptions	-7302
▁charter	-7303
▁forests	-7304
▁soldier	-7305
▁monarchy	-7306
▁surviving	-7307
▁profession	-7308
bul	-7309
cas	-7310
bost	-7311
iana	-7312
▁hear	-7313
▁spin	-7314
boston	-7315
▁2002,	-7316
▁sched	-7317
▁ranges	-7318
▁monster	-7319
▁dramatic	-7320
▁engineer	-7321
▁meanwhile	-7322
▁explicitly	-7323
▁arrangement	-7324
aron	-7325
wind	-7326
islam	-7327
alfred	-7328
hedral	-7329
▁diagn	-7330
▁relief	-7331
liography	-7332
▁theology	-7333
▁cathedral	-7334
▁accessyear	-7335
▁liberation	-7336
term	-7337
▁(194	-7338
ivered	-7339
▁slaves	-7340
▁volumes	-7341
▁delivered	-7342
▁specified	-7343
▁[[185	-7344
▁aimed	-7345
▁guest	-7346
▁revel	-7347
▁sight	-7348
▁gender	-7349
baseball	-7350
secution	-7351
▁enjoyed	-7352
▁neutral	-7353
▁summary	-7354
▁accuracy	-7355
▁supports	-7356
▁purchased	-7357
8]].	-7358
aved	-7359
esar	-7360
olve	-7361
▁10%	-7362
▁ray	-7363
▁upd	-7364
major	-7365
ameter	-7366
teenth	-7367
academy	-7368
▁convin	-7369
▁driver	-7370
language	-7371
▁synthesis	-7372
▁varieties	-7373
ket	-7374
lers	-7375
▁hash	-7376
▁node	-7377
▁assign	-7378
▁basket	-7379
▁intern	-7380
▁ruling	-7381
▁citizen	-7382
▁monetary	-7383
▁suitable	-7384
▁amendment	-7385
▁prisoners	-7386
▁teachings	-7387
▁surrounded	-7388
fa	-7389
▁axis	-7390
▁beng	-7391
▁drag	-7392
▁alien	-7393
atorial	-7394
function	-7395
▁phonetic	-7396
▁theological	-7397
7]].	-7398
iber	-7399
karl	-7400
ulpt	-7401
faces	-7402
▁tends	-7403
▁headed	-7404
▁sculpt	-7405
▁varied	-7406
▁conspir	-7407
▁detroit	-7408
▁planets	-7409
▁recognize	-7410
▁algorithms	-7411
▁efficiency	-7412
▁personality	-7413
ux	-7414
▁27	-7415
▁::	-7416
▁je	-7417
▁gro	-7418
apple	-7419
▁empt	-7420
▁kick	-7421
▁depth	-7422
▁framew	-7423
▁disputed	-7424
▁missiles	-7425
▁observation	-7426
▁gh	-7427
capt	-7428
▁ske	-7429
eenth	-7430
named	-7431
▁atom	-7432
▁keys	-7433
▁tube	-7434
▁humor	-7435
related	-7436
▁ethical	-7437
▁funding	-7438
▁civilian	-7439
▁electricity	-7440
vol	-7441
ider	-7442
▁egg	-7443
ograp	-7444
▁nova	-7445
/1,000	-7446
▁hotel	-7447
▁marks	-7448
▁franch	-7449
▁presum	-7450
▁prompt	-7451
▁implies	-7452
phi	-7453
party	-7454
▁marsh	-7455
pacific	-7456
▁abraham	-7457
▁equally	-7458
▁constell	-7459
▁caribbean	-7460
▁independently	-7461
ffee	-7462
otle	-7463
▁hond	-7464
▁rela	-7465
sweden	-7466
▁finds	-7467
stephen	-7468
▁*[[188	-7469
▁conven	-7470
southern	-7471
▁shorter	-7472
▁permitted	-7473
▁strategic	-7474
▁telephone	-7475
▁presidency	-7476
bec	-7477
}}"	-7478
▁65	-7479
stic	-7480
▁guid	-7481
▁1999,	-7482
▁crowd	-7483
▁sylla	-7484
▁config	-7485
▁miller	-7486
▁bringing	-7487
▁railroad	-7488
▁maintains	-7489
▁attempting	-7490
▁quantities	-7491
ss	-7492
▁gates	-7493
▁ports	-7494
▁couple	-7495
▁reverse	-7496
▁therapy	-7497
▁[[2003]]	-7498
▁directors	-7499
▁invention	-7500
▁requiring	-7501
▁temporary	-7502
▁twentieth	-7503
▁uncertain	-7504
▁acceptance	-7505
ada	-7506
icy	-7507
rac	-7508
▁ott	-7509
▁harm	-7510
▁khan	-7511
▁rice	-7512
▁wins	-7513
chester	-7514
▁earned	-7515
▁guaran	-7516
▁overth	-7517
▁willing	-7518
▁consumer	-7519
▁intention	-7520
▁unsuccess	-7521
rastructure	-7522
▁photograph	-7523
▁documentary	-7524
▁territorial	-7525
gr	-7526
dec	-7527
tri	-7528
oren	-7529
▁rif	-7530
etime	-7531
▁brow	-7532
▁dele	-7533
poland	-7534
▁herself	-7535
▁intense	-7536
▁abstract	-7537
▁lifetime	-7538
blockquote	-7539
▁indonesia	-7540
▁consequence	-7541
▁guy	-7542
liter	-7543
▁allen	-7544
▁([[198	-7545
▁luther	-7546
▁exposed	-7547
▁partial	-7548
▁complicated	-7549
ogue	-7550
play	-7551
▁tales	-7552
▁athens	-7553
utenberg	-7554
▁seeking	-7555
▁millions	-7556
▁animation	-7557
▁portrayed	-7558
▁functional	-7559
▁difficulties	-7560
▁constantinople	-7561
cat	-7562
web	-7563
mers	-7564
▁cpu	-7565
▁duty	-7566
▁hang	-7567
▁wine	-7568
ridges	-7569
▁parad	-7570
▁arrival	-7571
▁trained	-7572
▁nickname	-7573
democratic	-7574
▁indicated	-7575
▁conclusion	-7576
▁structural	-7577
mike	-7578
philip	-7579
▁loose	-7580
▁voted	-7581
▁archive	-7582
▁premier	-7583
▁editions	-7584
▁millennium	-7585
▁concentrated	-7586
▁consequences	-7587
▁70	-7588
oque	-7589
▁enth	-7590
▁prophe	-7591
▁render	-7592
▁applies	-7593
▁emergency	-7594
▁cooperation	-7595
▁psychological	-7596
mund	-7597
▁fewer	-7598
▁legit	-7599
▁(2004)	-7600
▁gather	-7601
▁plural	-7602
▁desired	-7603
▁falling	-7604
▁concluded	-7605
▁magnitude	-7606
▁stability	-7607
mac	-7608
down	-7609
▁cha	-7610
▁jobs	-7611
intend	-7612
▁2003.	-7613
▁asser	-7614
▁*[[186	-7615
▁exclud	-7616
▁dealing	-7617
▁extinct	-7618
▁holiday	-7619
▁matches	-7620
religious	-7621
▁infantry	-7622
▁overview	-7623
▁releases	-7624
▁sovereignty	-7625
▁28	-7626
▁aw	-7627
▁1989	-7628
▁4]],	-7629
▁eval	-7630
▁crypt	-7631
▁enjoy	-7632
▁sword	-7633
▁orange	-7634
▁tunnel	-7635
▁speaker	-7636
▁southwest	-7637
▁involvement	-7638
mw	-7639
ni	-7640
11}}	-7641
▁aids	-7642
▁alan	-7643
▁cave	-7644
▁rebu	-7645
▁soft	-7646
1911}}	-7647
▁empty	-7648
peranto	-7649
▁creator	-7650
▁seconds	-7651
▁rotation	-7652
▁estimates	-7653
▁dj	-7654
best	-7655
eliz	-7656
▁ric	-7657
itime	-7658
▁cann	-7659
▁debt	-7660
▁mart	-7661
▁disag	-7662
▁hitch	-7663
▁galaxy	-7664
▁latest	-7665
agricult	-7666
▁housing	-7667
elizabeth	-7668
▁offering	-7669
▁byzantine	-7670
▁framework	-7671
▁northeast	-7672
▁participate	-7673
ois	-7674
▁dc	-7675
erto	-7676
▁amaz	-7677
▁wright	-7678
▁reviews	-7679
▁arguably	-7680
▁arranged	-7681
▁enormous	-7682
▁promoted	-7683
▁quantity	-7684
▁infection	-7685
▁northwest	-7686
▁predecess	-7687
hl	-7688
iral	-7689
nati	-7690
▁ell	-7691
ibniz	-7692
incin	-7693
▁gore	-7694
▁amiga	-7695
▁recon	-7696
▁surre	-7697
▁elabor	-7698
▁leibniz	-7699
incinnati	-7700
mult	-7701
ughes	-7702
▁insc	-7703
encing	-7704
▁[[183	-7705
▁fired	-7706
▁manip	-7707
▁seeing	-7708
▁turkey	-7709
▁relevant	-7710
▁returning	-7711
▁variables	-7712
;-	-7713
ky	-7714
rey	-7715
sex	-7716
▁31	-7717
move	-7718
▁cens	-7719
▁curve	-7720
▁rocks	-7721
▁galile	-7722
restrial	-7723
▁decimal	-7724
▁indians	-7725
▁imprison	-7726
▁recovery	-7727
▁linguistic	-7728
▁simultaneously	-7729
zene	-7730
▁2]]	-7731
onian	-7732
ocaust	-7733
omorph	-7734
popups	-7735
▁bills	-7736
▁verse	-7737
special	-7738
▁coined	-7739
▁impress	-7740
▁ongoing	-7741
▁theolog	-7742
▁friedrich	-7743
▁narrative	-7744
▁negotiations	-7745
iro	-7746
lars	-7747
race	-7748
▁horn	-7749
▁sust	-7750
inburgh	-7751
▁photos	-7752
▁controls	-7753
▁immigrants	-7754
▁interactive	-7755
▁organisation	-7756
▁unfortunately	-7757
90	-7758
ara	-7759
ota	-7760
▁90	-7761
hism	-7762
▁250	-7763
amaic	-7764
▁arose	-7765
▁initi	-7766
▁ranked	-7767
frederick	-7768
▁opposing	-7769
▁proposal	-7770
▁illustrated	-7771
▁infrastructure	-7772
▁cm	-7773
fish	-7774
mble	-7775
hered	-7776
rises	-7777
uated	-7778
ompson	-7779
upiter	-7780
▁elder	-7781
▁solve	-7782
▁gordon	-7783
▁judges	-7784
▁remote	-7785
▁triang	-7786
▁carries	-7787
▁fighter	-7788
▁missions	-7789
▁thompson	-7790
▁personnel	-7791
▁approaches	-7792
▁automatically	-7793
food	-7794
▁hat	-7795
▁tig	-7796
▁tail	-7797
▁virus	-7798
▁(2001)	-7799
▁adjust	-7800
▁bought	-7801
▁revers	-7802
▁voters	-7803
▁amateur	-7804
▁centers	-7805
▁electro	-7806
▁journey	-7807
▁concrete	-7808
especially	-7809
▁neighbour	-7810
▁orchestra	-7811
▁threatened	-7812
▁underlying	-7813
▁jurisdiction	-7814
▁pennsylvania	-7815
gi	-7816
zz	-7817
sea	-7818
▁ble	-7819
osing	-7820
techn	-7821
zilla	-7822
▁snow	-7823
▁ther	-7824
brazil	-7825
▁raise	-7826
▁tribe	-7827
popular	-7828
▁advice	-7829
▁thereby	-7830
▁compiler	-7831
▁constitu	-7832
▁defining	-7833
▁purchase	-7834
▁consonant	-7835
▁dimension	-7836
▁southeast	-7837
)/	-7838
def	-7839
udi	-7840
dinand	-7841
ictions	-7842
▁patent	-7843
▁stephen	-7844
▁animated	-7845
▁coverage	-7846
▁messages	-7847
▁operates	-7848
▁publicly	-7849
▁appearing	-7850
▁argentina	-7851
▁reflected	-7852
hms	-7853
anol	-7854
body	-7855
ietz	-7856
ille	-7857
ithm	-7858
▁door	-7859
▁ohio	-7860
gospel	-7861
▁dinos	-7862
▁newer	-7863
▁nietz	-7864
protest	-7865
▁denied	-7866
▁turing	-7867
protestant	-7868
▁[[2005]].	-7869
▁nietzsche	-7870
▁expedition	-7871
▁punishment	-7872
>1	-7873
lov	-7874
▁32	-7875
amma	-7876
iast	-7877
when	-7878
▁bon	-7879
▁doz	-7880
czech	-7881
lovak	-7882
cribed	-7883
▁craft	-7884
▁wider	-7885
▁besides	-7886
▁pointed	-7887
▁franchise	-7888
▁legendary	-7889
gl	-7890
mov	-7891
cath	-7892
emed	-7893
▁pas	-7894
movie	-7895
▁bene	-7896
▁chad	-7897
▁tale	-7898
author	-7899
▁2001.	-7900
▁encod	-7901
▁truly	-7902
▁(2003)	-7903
▁alfred	-7904
▁errors	-7905
▁hidden	-7906
▁shield	-7907
▁customs	-7908
▁integer	-7909
▁suicide	-7910
▁drinking	-7911
▁generate	-7912
▁governed	-7913
▁duplicate	-7914
aiw	-7915
bab	-7916
acts	-7917
aiwan	-7918
often	-7919
▁fert	-7920
▁meat	-7921
rected	-7922
▁balls	-7923
▁basin	-7924
▁assert	-7925
communist	-7926
parliament	-7927
▁abolished	-7928
▁considering	-7929
▁counterpart	-7930
▁electronics	-7931
;3&	-7932
olas	-7933
unte	-7934
▁orb	-7935
▁viet	-7936
▁wiki	-7937
▁crops	-7938
▁deput	-7939
▁caesar	-7940
▁shares	-7941
▁volunte	-7942
▁anderson	-7943
▁extensively	-7944
▁regulations	-7945
▁requirement	-7946
▁participation	-7947
joe	-7948
run	-7949
▁mad	-7950
▁yan	-7951
rator	-7952
▁pound	-7953
▁taste	-7954
▁camera	-7955
▁removal	-7956
▁comments	-7957
▁attracted	-7958
gdp	-7959
ogle	-7960
▁jun	-7961
obile	-7962
▁neck	-7963
gorian	-7964
▁piano	-7965
ottoman	-7966
▁horror	-7967
▁lasted	-7968
▁propag	-7969
▁prophet	-7970
▁inherent	-7971
▁studying	-7972
▁battleship	-7973
▁discipline	-7974
▁spacecraft	-7975
▁inspiration	-7976
ague	-7977
▁voy	-7978
▁1000	-7979
▁deck	-7980
arctic	-7981
intendo	-7982
▁caught	-7983
▁insist	-7984
▁returns	-7985
▁breaking	-7986
▁moderate	-7987
▁suffering	-7988
▁intelligent	-7989
▁metropolitan	-7990
arm	-7991
indo	-7992
scale	-7993
scient	-7994
▁holes	-7995
▁sugar	-7996
density	-7997
▁entity	-7998
▁proven	-7999
▁stores	-8000
▁editing	-8001
▁readers	-8002
▁replacing	-8003
▁capabilities	-8004
83	-8005
cos	-8006
imdb	-8007
oppy	-8008
▁lyn	-8009
▁nel	-8010
ourse	-8011
greece	-8012
▁annex	-8013
▁coins	-8014
▁flood	-8015
▁median	-8016
▁nelson	-8017
▁volcan	-8018
▁servers	-8019
▁arrested	-8020
▁remainder	-8021
▁agreements	-8022
▁businesses	-8023
jac	-8024
aret	-8025
tage	-8026
ombia	-8027
rance	-8028
▁cert	-8029
▁enzy	-8030
▁[[184	-8031
▁argues	-8032
▁decide	-8033
▁disaster	-8034
▁visitors	-8035
ifications	-8036
▁alongside	-8037
▁macintosh	-8038
▁basketball	-8039
▁separation	-8040
▁}	-8041
3</	-8042
iety	-8043
prof	-8044
ptic	-8045
somet	-8046
verty	-8047
▁memb	-8048
polish	-8049
▁crimes	-8050
▁closest	-8051
▁convert	-8052
▁poverty	-8053
▁theater	-8054
▁assisted	-8055
▁receives	-8056
▁disorders	-8057
pes	-8058
aine	-8059
coun	-8060
▁tot	-8061
graph	-8062
ipher	-8063
▁gary	-8064
▁icon	-8065
▁slave	-8066
▁hughes	-8067
▁creates	-8068
▁campbell	-8069
▁entering	-8070
▁tendency	-8071
'')	-8072
aria	-8073
hong	-8074
iran	-8075
▁tom	-8076
▁sees	-8077
▁tomb	-8078
adelph	-8079
double	-8080
▁dated	-8081
▁commem	-8082
▁handle	-8083
▁orient	-8084
▁retire	-8085
▁extends	-8086
▁diamonds	-8087
▁laureate	-8088
▁migration	-8089
▁appearances	-8090
▁differential	-8091
-1	-8092
bas	-8093
urg	-8094
itre	-8095
osto	-8096
rand	-8097
uras	-8098
▁bed	-8099
▁nut	-8100
ewise	-8101
▁boom	-8102
austria	-8103
onymous	-8104
▁([[196	-8105
▁corner	-8106
▁derives	-8107
▁fishing	-8108
▁targets	-8109
▁likewise	-8110
▁register	-8111
▁unlikely	-8112
▁recordings	-8113
▁significance	-8114
ifies	-8115
▁coin	-8116
▁rein	-8117
▁dream	-8118
▁escap	-8119
▁alaska	-8120
▁racial	-8121
▁dollars	-8122
▁instances	-8123
▁recipient	-8124
▁exceptions	-8125
▁newspapers	-8126
▁intervention	-8127
pan	-8128
sin	-8129
alog	-8130
bing	-8131
chron	-8132
▁2]],	-8133
walter	-8134
▁deals	-8135
▁homes	-8136
▁renew	-8137
▁wings	-8138
▁disputes	-8139
▁proportion	-8140
uum	-8141
four	-8142
ruck	-8143
▁rug	-8144
▁iran	-8145
ension	-8146
▁inhib	-8147
▁ready	-8148
▁struck	-8149
▁painted	-8150
▁plastic	-8151
▁strange	-8152
▁[[2001]]	-8153
▁exercise	-8154
▁indirect	-8155
▁monaster	-8156
▁supplies	-8157
▁[[2004]].	-8158
electricity	-8159
▁adventures	-8160
▁extinction	-8161
▁recommended	-8162
tan	-8163
▁4.	-8164
itro	-8165
▁vul	-8166
ijing	-8167
▁nouns	-8168
▁saved	-8169
▁cylind	-8170
▁window	-8171
▁singular	-8172
▁maintaining	-8173
tml	-8174
▁45	-8175
icon	-8176
inav	-8177
▁184	-8178
esley	-8179
indust	-8180
prince	-8181
▁diego	-8182
▁maria	-8183
georgia	-8184
▁capita	-8185
▁looked	-8186
itational	-8187
▁childhood	-8188
mathematical	-8189
▁settlements	-8190
ng	-8191
oo	-8192
▁py	-8193
heat	-8194
found	-8195
roger	-8196
scape	-8197
▁salt	-8198
writer	-8199
unicode	-8200
▁solely	-8201
complete	-8202
isotopes	-8203
▁burning	-8204
▁denomin	-8205
▁integral	-8206
▁exclusive	-8207
information	-8208
bac	-8209
orth	-8210
▁ion	-8211
acles	-8212
▁dick	-8213
orious	-8214
▁1,000	-8215
iceless	-8216
matical	-8217
▁contra	-8218
▁purely	-8219
▁writes	-8220
▁mounted	-8221
▁princess	-8222
▁citizenship	-8223
aco	-8224
arsh	-8225
rant	-8226
▁gnu	-8227
▁essays	-8228
▁fusion	-8229
cription	-8230
physical	-8231
▁convers	-8232
▁herbert	-8233
▁creative	-8234
▁exposure	-8235
▁schedule	-8236
▁spending	-8237
▁incorrect	-8238
▁lovecraft	-8239
▁sovereign	-8240
▁corruption	-8241
▁perception	-8242
▁proclaimed	-8243
▁revelation	-8244
▁palestinian	-8245
hand	-8246
pier	-8247
ordan	-8248
▁cats	-8249
▁greg	-8250
pierre	-8251
▁shock	-8252
▁thick	-8253
hungary	-8254
itative	-8255
▁blocks	-8256
▁admiral	-8257
▁belgium	-8258
▁reaches	-8259
▁revenue	-8260
▁stronger	-8261
▁displayed	-8262
▁employees	-8263
restrictions	-8264
;{{	-8265
▁wel	-8266
olics	-8267
▁3]],	-8268
cccccc	-8269
▁hawai	-8270
▁nobel	-8271
▁sleep	-8272
▁estate	-8273
▁scored	-8274
▁belarus	-8275
▁diagram	-8276
▁privile	-8277
▁explains	-8278
▁catholics	-8279
▁paintings	-8280
▁programme	-8281
▁repeatedly	-8282
▁corresponds	-8283
▁interpretations	-8284
oes	-8285
▁35	-8286
▁8,	-8287
llor	-8288
udes	-8289
harry	-8290
tario	-8291
▁[[15	-8292
altern	-8293
▁1998,	-8294
▁affil	-8295
▁overw	-8296
▁siege	-8297
▁worst	-8298
ication	-8299
▁happen	-8300
▁tempor	-8301
▁ontario	-8302
▁[[2002]]	-8303
▁commerce	-8304
▁relating	-8305
▁reliable	-8306
scientific	-8307
▁practiced	-8308
▁capability	-8309
▁procedures	-8310
▁integration	-8311
▁geographical	-8312
bro	-8313
oir	-8314
two	-8315
▁cul	-8316
sters	-8317
▁tied	-8318
▁crash	-8319
▁wayne	-8320
▁(2005)	-8321
▁manual	-8322
▁stones	-8323
religion	-8324
▁install	-8325
▁vessels	-8326
▁[[1999]]	-8327
▁accessed	-8328
▁agencies	-8329
▁ceremony	-8330
▁hollywood	-8331
▁poe	-8332
▁adopt	-8333
▁alpha	-8334
▁cuban	-8335
▁divor	-8336
▁vocal	-8337
ologist	-8338
▁adults	-8339
▁massac	-8340
▁statue	-8341
catholic	-8342
▁session	-8343
▁studios	-8344
▁warming	-8345
▁consisted	-8346
▁elevation	-8347
▁reasoning	-8348
mos	-8349
▁mc	-8350
ilit	-8351
▁las	-8352
aylor	-8353
icians	-8354
istent	-8355
▁ninet	-8356
▁oblig	-8357
▁tasks	-8358
changed	-8359
▁cooper	-8360
▁overla	-8361
▁plague	-8362
▁aggress	-8363
▁facilit	-8364
▁illness	-8365
▁tourist	-8366
▁calculus	-8367
▁chapters	-8368
▁survival	-8369
▁communion	-8370
▁provincial	-8371
▁exploration	-8372
▁generations	-8373
both	-8374
owed	-8375
▁eve	-8376
colum	-8377
▁rica	-8378
▁sixth	-8379
▁serial	-8380
▁subset	-8381
atherine	-8382
lications	-8383
sometimes	-8384
▁automatic	-8385
▁collections	-8386
just	-8387
lace	-8388
stan	-8389
▁han	-8390
infall	-8391
▁20]],	-8392
▁taxes	-8393
musical	-8394
▁([[197	-8395
▁*[[187	-8396
▁casual	-8397
▁enthus	-8398
▁freely	-8399
▁losses	-8400
▁quoted	-8401
▁sample	-8402
adelphia	-8403
▁factory	-8404
▁priests	-8405
▁approxim	-8406
▁disagree	-8407
▁inventor	-8408
▁rainfall	-8409
▁acknowled	-8410
60	-8411
si	-8412
300	-8413
uan	-8414
▁|&	-8415
duke	-8416
xican	-8417
▁shop	-8418
▁stro	-8419
▁susp	-8420
andrew	-8421
palest	-8422
turkey	-8423
▁grain	-8424
complex	-8425
current	-8426
▁feeling	-8427
▁obsolete	-8428
▁occasions	-8429
▁recovered	-8430
▁derivative	-8431
▁publishers	-8432
▁measurement	-8433
▁transmitted	-8434
▁mediterranean	-8435
mun	-8436
▁5.	-8437
nard	-8438
▁bulk	-8439
▁coat	-8440
▁rear	-8441
golden	-8442
▁(2002)	-8443
▁injury	-8444
▁chromos	-8445
▁governing	-8446
▁conspiracy	-8447
▁potentially	-8448
{|	-8449
▁ow	-8450
prop	-8451
▁bot	-8452
▁tan	-8453
radic	-8454
texas	-8455
▁*197	-8456
▁habit	-8457
federal	-8458
▁downlo	-8459
▁distant	-8460
▁kilomet	-8461
▁definite	-8462
▁arbitrary	-8463
▁processor	-8464
▁seriously	-8465
▁geographic	-8466
▁remarkable	-8467
▁legislature	-8468
ko	-8469
aked	-8470
aren	-8471
zone	-8472
▁1988	-8473
▁chip	-8474
▁morm	-8475
▁accum	-8476
compass	-8477
denmark	-8478
mentary	-8479
▁beauty	-8480
▁inches	-8481
▁preval	-8482
▁resign	-8483
▁thanks	-8484
▁ottoman	-8485
▁[[2000]]	-8486
▁clothing	-8487
▁diameter	-8488
▁kingdoms	-8489
▁meetings	-8490
▁encompass	-8491
▁sequences	-8492
▁permission	-8493
commonwealth	-8494
▁manufactured	-8495
cor	-8496
ibal	-8497
}}</	-8498
▁hur	-8499
antor	-8500
▁9]],	-8501
▁[[16	-8502
silver	-8503
▁alive	-8504
▁brian	-8505
tenance	-8506
▁borough	-8507
▁deliver	-8508
▁admitted	-8509
▁symbolic	-8510
▁holocaust	-8511
▁thereafter	-8512
▁maintenance	-8513
▁manufacturer	-8514
▁transformation	-8515
aph	-8516
cla	-8517
rod	-8518
auge	-8519
nazi	-8520
type	-8521
uits	-8522
▁fro	-8523
▁tag	-8524
names	-8525
▁1987	-8526
▁guer	-8527
▁shel	-8528
▁(2001	-8529
▁abund	-8530
▁alter	-8531
▁aside	-8532
▁catch	-8533
▁insur	-8534
▁noble	-8535
▁physi	-8536
▁simon	-8537
▁cyprus	-8538
▁fallen	-8539
▁minute	-8540
▁morgan	-8541
▁samuel	-8542
portugal	-8543
▁demands	-8544
▁differs	-8545
▁singles	-8546
▁circuits	-8547
▁clinical	-8548
▁presents	-8549
▁composers	-8550
▁esperanto	-8551
▁explosive	-8552
▁footballer	-8553
▁astronomical	-8554
▁neighborhood	-8555
gel	-8556
eper	-8557
gulf	-8558
▁150	-8559
▁cir	-8560
▁pin	-8561
based	-8562
since	-8563
▁heir	-8564
▁mild	-8565
conser	-8566
pended	-8567
▁congo	-8568
▁harry	-8569
▁waste	-8570
▁antiqu	-8571
▁danger	-8572
▁rowspan	-8573
▁wilhelm	-8574
languages	-8575
▁encourage	-8576
2=	-8577
▁29	-8578
▁indo	-8579
▁kent	-8580
▁ties	-8581
romagn	-8582
▁1997,	-8583
▁2002.	-8584
▁aaron	-8585
▁faces	-8586
▁yanke	-8587
minster	-8588
▁matrix	-8589
▁naming	-8590
▁proport	-8591
▁singing	-8592
▁adoption	-8593
▁terminal	-8594
romagnetic	-8595
▁assistant	-8596
flo	-8597
ithu	-8598
chief	-8599
illed	-8600
level	-8601
erical	-8602
▁amino	-8603
▁magic	-8604
▁stood	-8605
vietnam	-8606
▁facing	-8607
▁consent	-8608
▁defines	-8609
▁secular	-8610
▁playoffs	-8611
▁adventure	-8612
▁conflicts	-8613
▁technically	-8614
▁terminology	-8615
zed	-8616
case	-8617
hell	-8618
iron	-8619
▁[[5	-8620
▁ecc	-8621
udius	-8622
boeing	-8623
coming	-8624
linear	-8625
▁dealt	-8626
▁decay	-8627
▁rhyth	-8628
▁stead	-8629
▁bosnia	-8630
▁hoover	-8631
ithmetic	-8632
▁believes	-8633
▁claudius	-8634
▁graduate	-8635
▁installed	-8636
▁tournament	-8637
owa	-8638
esco	-8639
▁4]]	-8640
eness	-8641
▁6]],	-8642
▁aber	-8643
▁desk	-8644
county	-8645
erated	-8646
▁bowie	-8647
▁shore	-8648
▁(1999)	-8649
▁assess	-8650
▁cultiv	-8651
▁google	-8652
▁kennedy	-8653
▁maritime	-8654
employment	-8655
▁occurring	-8656
▁operators	-8657
▁orientation	-8658
▁predominantly	-8659
▁specification	-8660
>4	-8661
rv	-8662
atom	-8663
mach	-8664
mole	-8665
pton	-8666
▁dor	-8667
▁loop	-8668
▁resc	-8669
orship	-8670
▁10]],	-8671
▁scope	-8672
▁warri	-8673
▁adject	-8674
▁decemb	-8675
▁helium	-8676
▁eternal	-8677
otheruses	-8678
▁striking	-8679
▁advocates	-8680
▁mechanisms	-8681
▁confederate	-8682
▁unsuccessful	-8683
fs	-8684
bol	-8685
cii	-8686
zona	-8687
▁1.0	-8688
▁surn	-8689
▁flows	-8690
further	-8691
▁baltic	-8692
▁clergy	-8693
▁encoun	-8694
▁mutual	-8695
▁plains	-8696
▁arizona	-8697
▁console	-8698
▁senator	-8699
byzantine	-8700
▁designer	-8701
▁educated	-8702
▁settlers	-8703
▁consensus	-8704
▁constantine	-8705
▁measurements	-8706
nav	-8707
tes	-8708
▁rod	-8709
▁yah	-8710
▁1986	-8711
▁bicy	-8712
▁fulf	-8713
▁gent	-8714
▁25]],	-8715
▁embra	-8716
▁([[195	-8717
▁runner	-8718
▁hunting	-8719
▁resigned	-8720
imensional	-8721
▁marketing	-8722
▁respective	-8723
▁progressive	-8724
bib	-8725
gnu	-8726
atra	-8727
▁hem	-8728
▁osc	-8729
▁1981	-8730
▁conj	-8731
▁repr	-8732
▁appre	-8733
▁clark	-8734
▁grace	-8735
▁veter	-8736
▁yards	-8737
▁abroad	-8738
▁deemed	-8739
▁genres	-8740
▁metres	-8741
▁smooth	-8742
▁tissue	-8743
▁trains	-8744
hydrogen	-8745
▁driving	-8746
▁invaded	-8747
▁actively	-8748
▁monument	-8749
▁restrict	-8750
▁completion	-8751
▁championships	-8752
ua	-8753
gas	-8754
bage	-8755
igma	-8756
▁18,	-8757
ograf	-8758
▁1984	-8759
▁7]],	-8760
▁legs	-8761
itudes	-8762
samuel	-8763
▁ghost	-8764
▁phone	-8765
▁toler	-8766
charact	-8767
▁amplif	-8768
▁hosted	-8769
▁legacy	-8770
▁speeds	-8771
▁battery	-8772
▁mystery	-8773
▁sophist	-8774
▁criteria	-8775
continental	-8776
▁collective	-8777
rus	-8778
▁*&	-8779
ethe	-8780
mail	-8781
▁dod	-8782
union	-8783
▁butt	-8784
▁flex	-8785
▁libr	-8786
veolar	-8787
▁cargo	-8788
▁dense	-8789
▁swiss	-8790
▁profit	-8791
etheless	-8792
▁atlanta	-8793
▁entrance	-8794
▁teachers	-8795
▁abilities	-8796
▁libraries	-8797
▁relatives	-8798
switzerland	-8799
▁consonants	-8800
▁dimensions	-8801
▁recognised	-8802
▁nonetheless	-8803
▁demographics	-8804
▁civilizations	-8805
▁configuration	-8806
luc	-8807
cold	-8808
▁mam	-8809
rilla	-8810
▁bald	-8811
▁flav	-8812
▁load	-8813
▁mood	-8814
▁swit	-8815
▁trek	-8816
marine	-8817
▁11]],	-8818
▁advis	-8819
▁chron	-8820
▁toxic	-8821
▁affair	-8822
▁barrel	-8823
▁coffee	-8824
▁scores	-8825
▁voyage	-8826
imperial	-8827
▁baptist	-8828
▁circumc	-8829
▁cluster	-8830
▁imports	-8831
▁matthew	-8832
▁centered	-8833
▁norwegian	-8834
▁acceptable	-8835
▁proponents	-8836
▁supplement	-8837
▁withdrawal	-8838
▁anniversary	-8839
▁dramatically	-8840
tor	-8841
▁64	-8842
unct	-8843
▁eag	-8844
▁mile	-8845
▁shad	-8846
mexico	-8847
▁anthe	-8848
▁athen	-8849
▁defic	-8850
▁pagan	-8851
▁remem	-8852
▁spoke	-8853
▁dublin	-8854
▁tested	-8855
▁damaged	-8856
▁nucleus	-8857
▁prosper	-8858
▁athletic	-8859
▁colorado	-8860
▁factbook	-8861
christopher	-8862
▁compatible	-8863
▁presidents	-8864
▁competitive	-8865
bury	-8866
eded	-8867
inte	-8868
ropy	-8869
▁obs	-8870
owned	-8871
▁14]],	-8872
▁tight	-8873
▁austin	-8874
▁cocaine	-8875
▁farming	-8876
▁finance	-8877
▁phrases	-8878
▁ranging	-8879
▁voltage	-8880
▁wearing	-8881
▁homepage	-8882
▁smallest	-8883
▁precisely	-8884
▁strengthe	-8885
▁adaptation	-8886
▁journalist	-8887
uct	-8888
code	-8889
ping	-8890
▁sect	-8891
▁21]],	-8892
▁aster	-8893
council	-8894
itrogen	-8895
▁boeing	-8896
▁metals	-8897
▁earthqu	-8898
▁monitor	-8899
▁deposits	-8900
▁entities	-8901
▁muhammad	-8902
▁overwhel	-8903
▁developers	-8904
▁consecutive	-8905
9</	-8906
eme	-8907
▁5,	-8908
exec	-8909
abril	-8910
colla	-8911
▁5]],	-8912
▁rely	-8913
▁*****	-8914
▁17]],	-8915
▁radar	-8916
collapse	-8917
▁intermedi	-8918
▁contribute	-8919
▁provisions	-8920
▁archaeological	-8921
mn	-8922
aug	-8923
tax	-8924
appa	-8925
ccer	-8926
ested	-8927
heric	-8928
▁pool	-8929
oxford	-8930
stable	-8931
▁encry	-8932
▁stick	-8933
▁brooks	-8934
▁divide	-8935
▁graham	-8936
electron	-8937
▁circles	-8938
▁courses	-8939
▁frontier	-8940
▁judgment	-8941
▁membrane	-8942
▁portions	-8943
agriculture	-8944
▁instrumental	-8945
wp	-8946
6</	-8947
ded	-8948
ibm	-8949
oker	-8950
stat	-8951
▁600	-8952
▁abd	-8953
ingly	-8954
uting	-8955
▁bone	-8956
▁golf	-8957
▁shah	-8958
▁recre	-8959
▁10,000	-8960
▁client	-8961
▁mormon	-8962
▁morris	-8963
▁taylor	-8964
▁slavery	-8965
▁monarchs	-8966
▁realized	-8967
▁removing	-8968
▁rendered	-8969
▁competing	-8970
▁attributes	-8971
▁gla	-8972
▁boat	-8973
▁grey	-8974
▁obsc	-8975
▁1999.	-8976
▁gauge	-8977
▁vital	-8978
▁gothic	-8979
▁reader	-8980
▁volunt	-8981
formerly	-8982
▁villages	-8983
▁hierarchy	-8984
▁indicating	-8985
▁operational	-8986
0%&	-8987
dor	-8988
gov	-8989
cock	-8990
hent	-8991
arian	-8992
jesus	-8993
▁1985	-8994
▁brun	-8995
mitive	-8996
▁1998.	-8997
▁debut	-8998
napoleon	-8999
▁collins	-9000
▁compete	-9001
▁placing	-9002
fictional	-9003
▁anglican	-9004
▁bulgaria	-9005
▁commemor	-9006
▁convinced	-9007
▁scheduled	-9008
▁regulation	-9009
▁conventions	-9010
yer	-9011
anth	-9012
rust	-9013
apore	-9014
blood	-9015
orted	-9016
▁alto	-9017
uminium	-9018
▁(2000)	-9019
▁rounds	-9020
▁weekly	-9021
▁ethiopia	-9022
▁organism	-9023
electronic	-9024
▁immigration	-9025
▁preparation	-9026
▁assassination	-9027
ext	-9028
budd	-9029
last	-9030
▁10,	-9031
▁nfc	-9032
odium	-9033
river	-9034
▁gray	-9035
▁isle	-9036
▁thor	-9037
daniel	-9038
father	-9039
▁1996,	-9040
▁armen	-9041
▁comet	-9042
ippines	-9043
▁gaining	-9044
▁sharing	-9045
▁unified	-9046
▁commodore	-9047
▁discussions	-9048
▁accomplished	-9049
▁administered	-9050
▁constellation	-9051
=1	-9052
▁si	-9053
▁raw	-9054
▁1983	-9055
▁hunt	-9056
▁ross	-9057
irical	-9058
▁(2002	-9059
▁aquar	-9060
station	-9061
windows	-9062
▁clarke	-9063
▁deeply	-9064
▁winners	-9065
ationally	-9066
▁carriers	-9067
▁opinions	-9068
▁preserve	-9069
▁highlight	-9070
▁physically	-9071
eg	-9072
oa	-9073
bir	-9074
▁(3	-9075
)]].	-9076
agon	-9077
bard	-9078
icks	-9079
adesh	-9080
brian	-9081
▁gang	-9082
▁tiny	-9083
ladesh	-9084
margin	-9085
▁28]],	-9086
▁wheel	-9087
attered	-9088
▁consol	-9089
▁eating	-9090
▁filter	-9091
▁floppy	-9092
▁poison	-9093
▁gregory	-9094
▁missing	-9095
▁terrain	-9096
▁updated	-9097
angelical	-9098
naissance	-9099
▁surfaces	-9100
▁transmit	-9101
▁algebraic	-9102
▁chemicals	-9103
▁reportedly	-9104
▁conservation	-9105
▁contribution	-9106
▁identification	-9107
nfl	-9108
brit	-9109
rium	-9110
▁[[4	-9111
▁bub	-9112
argon	-9113
hindu	-9114
▁wond	-9115
icular	-9116
sexual	-9117
▁30]],	-9118
▁arrow	-9119
▁nodes	-9120
▁[[1920	-9121
▁mining	-9122
▁sphere	-9123
▁tables	-9124
▁dynamic	-9125
▁evening	-9126
▁revival	-9127
▁favorite	-9128
▁uprising	-9129
▁addresses	-9130
▁elaborate	-9131
▁physician	-9132
▁producers	-9133
▁connecting	-9134
▁passengers	-9135
▁corporations	-9136
oph	-9137
▁aqu	-9138
▁coe	-9139
▁ibn	-9140
▁bare	-9141
▁dice	-9142
▁pock	-9143
▁pregn	-9144
▁namely	-9145
▁neighb	-9146
personal	-9147
▁compare	-9148
▁wealthy	-9149
▁observer	-9150
▁squadron	-9151
▁substant	-9152
▁dissolved	-9153
▁emotional	-9154
▁employment	-9155
▁surprising	-9156
▁speculation	-9157
ppp	-9158
▁ip	-9159
home	-9160
ugos	-9161
word	-9162
▁fou	-9163
]]'',	-9164
▁*'''	-9165
▁baby	-9166
▁berg	-9167
nomial	-9168
▁eritre	-9169
▁pushed	-9170
▁vulner	-9171
▁formats	-9172
▁councils	-9173
▁supposedly	-9174
▁frequencies	-9175
▁denominations	-9176
▁jurisdictions	-9177
8</	-9178
ias	-9179
pub	-9180
ansk	-9181
esty	-9182
imir	-9183
▁pap	-9184
three	-9185
estyle	-9186
▁26]],	-9187
▁dress	-9188
▁hosts	-9189
▁santa	-9190
anskrit	-9191
mingway	-9192
▁bitter	-9193
▁compens	-9194
▁congreg	-9195
▁mentions	-9196
▁napoleon	-9197
▁pleasure	-9198
▁carefully	-9199
▁explosion	-9200
▁extending	-9201
▁hemingway	-9202
▁nominated	-9203
▁calculated	-9204
.]],	-9205
rill	-9206
▁carl	-9207
▁ensu	-9208
▁milk	-9209
spring	-9210
▁18]],	-9211
▁1994,	-9212
▁foods	-9213
▁globe	-9214
▁honey	-9215
▁marry	-9216
▁micro	-9217
▁ranks	-9218
▁spell	-9219
▁([[194	-9220
▁schwar	-9221
▁bernard	-9222
▁imposed	-9223
▁putting	-9224
▁signing	-9225
▁comedian	-9226
▁campaigns	-9227
▁creatures	-9228
▁pollution	-9229
▁registered	-9230
▁foundations	-9231
▁improvements	-9232
▁documentation	-9233
0000	-9234
anes	-9235
▁haz	-9236
▁rfc	-9237
acting	-9238
atemal	-9239
berlin	-9240
▁1996.	-9241
▁2006,	-9242
▁realm	-9243
▁denote	-9244
▁powder	-9245
▁aramaic	-9246
▁crucial	-9247
▁crystal	-9248
▁entropy	-9249
▁activist	-9250
▁everyday	-9251
▁sacrifice	-9252
▁assumption	-9253
▁comparable	-9254
▁performances	-9255
|&	-9256
1=#	-9257
▁bol	-9258
▁lod	-9259
▁tut	-9260
▁[[12	-9261
▁cite	-9262
▁temp	-9263
ernest	-9264
igible	-9265
norway	-9266
pendit	-9267
rowave	-9268
▁anton	-9269
▁clown	-9270
▁infer	-9271
harvard	-9272
terbury	-9273
▁anthem	-9274
friedrich	-9275
▁annually	-9276
▁commands	-9277
▁sensitive	-9278
▁canterbury	-9279
▁systematic	-9280
▁politicians	-9281
;4	-9282
adam	-9283
onto	-9284
▁hay	-9285
andre	-9286
negie	-9287
▁prix	-9288
ilater	-9289
illery	-9290
little	-9291
▁hyper	-9292
▁binding	-9293
▁invited	-9294
▁americas	-9295
▁aviation	-9296
▁passages	-9297
▁printing	-9298
▁descended	-9299
dimensional	-9300
▁separately	-9301
▁determining	-9302
▁organisations	-9303
icut	-9304
▁183	-9305
▁stu	-9306
multi	-9307
▁8]],	-9308
▁cycl	-9309
ipolar	-9310
▁plateau	-9311
▁circular	-9312
▁portrait	-9313
▁[[2003]],	-9314
environment	-9315
▁unofficial	-9316
▁connecticut	-9317
▁photographs	-9318
▁politically	-9319
▁intermediate	-9320
cub	-9321
anni	-9322
▁50%	-9323
▁fab	-9324
▁sel	-9325
▁edit	-9326
▁item	-9327
direct	-9328
secret	-9329
▁hired	-9330
machine	-9331
▁(1995)	-9332
▁avenue	-9333
▁syntax	-9334
▁tended	-9335
▁wooden	-9336
▁liberty	-9337
▁sectors	-9338
▁delivery	-9339
▁shooting	-9340
▁europeans	-9341
▁autonomous	-9342
▁calculations	-9343
▁similarities	-9344
wig	-9345
▁33	-9346
held	-9347
▁afc	-9348
▁gat	-9349
float	-9350
intel	-9351
▁forg	-9352
▁15]],	-9353
▁23]],	-9354
abulary	-9355
iveness	-9356
osition	-9357
▁cardin	-9358
▁carter	-9359
▁environ	-9360
▁happens	-9361
▁airports	-9362
▁ancestor	-9363
▁breeding	-9364
▁displays	-9365
▁famously	-9366
▁harmonic	-9367
▁fragments	-9368
▁objective	-9369
▁environments	-9370
ikh	-9371
assy	-9372
iang	-9373
▁alk	-9374
▁gor	-9375
▁jon	-9376
bible	-9377
copal	-9378
molec	-9379
▁duck	-9380
▁eric	-9381
▁fate	-9382
▁slav	-9383
acular	-9384
ethnic	-9385
muslim	-9386
▁12]],	-9387
▁noise	-9388
▁recru	-9389
▁honour	-9390
▁thrown	-9391
▁voices	-9392
▁graphic	-9393
▁harbour	-9394
▁hearing	-9395
▁heights	-9396
▁legally	-9397
▁rolling	-9398
▁tension	-9399
▁desember	-9400
▁astronomy	-9401
▁initiated	-9402
▁universally	-9403
she	-9404
▁ecl	-9405
=2005	-9406
enues	-9407
▁abbe	-9408
ipping	-9409
▁22]],	-9410
▁coinc	-9411
▁decor	-9412
▁photo	-9413
▁sizes	-9414
▁dubbed	-9415
▁masses	-9416
victoria	-9417
▁farmers	-9418
▁flights	-9419
▁prototy	-9420
▁tactics	-9421
commodore	-9422
▁creature	-9423
▁equipped	-9424
▁prevented	-9425
▁occasional	-9426
▁sn	-9427
▁kant	-9428
▁disks	-9429
▁trace	-9430
▁[[1918	-9431
▁philip	-9432
ographer	-9433
▁lasting	-9434
▁minerals	-9435
▁reserves	-9436
▁commanded	-9437
▁distances	-9438
▁diversity	-9439
filmography	-9440
▁constitute	-9441
ued	-9442
loyd	-9443
lton	-9444
rari	-9445
▁asp	-9446
broad	-9447
embre	-9448
bourne	-9449
▁1997.	-9450
▁24]],	-9451
▁conve	-9452
▁recur	-9453
jacques	-9454
▁batter	-9455
▁eleven	-9456
▁immort	-9457
▁revolt	-9458
▁stayed	-9459
▁funeral	-9460
▁helping	-9461
▁pioneer	-9462
▁presley	-9463
▁undergo	-9464
▁[[1998]]	-9465
▁autonomy	-9466
▁consolid	-9467
▁crossing	-9468
▁landscape	-9469
▁primitive	-9470
constantine	-9471
▁communicate	-9472
iat	-9473
▁oct	-9474
iders	-9475
phony	-9476
▁belt	-9477
inrich	-9478
▁chlor	-9479
▁elite	-9480
▁rings	-9481
▁winds	-9482
▁barbar	-9483
▁refere	-9484
▁traits	-9485
▁bearing	-9486
▁beijing	-9487
▁categor	-9488
▁constra	-9489
▁enabled	-9490
▁facility	-9491
cellaneous	-9492
▁ancestors	-9493
▁notorious	-9494
▁deliberately	-9495
▁conservatives	-9496
▁reconstruction	-9497
-2	-9498
iov	-9499
roy	-9500
▁6,	-9501
nold	-9502
ulty	-9503
▁nic	-9504
▁wed	-9505
break	-9506
garet	-9507
inery	-9508
▁anne	-9509
timore	-9510
▁ambig	-9511
▁meets	-9512
▁shots	-9513
▁cantor	-9514
▁copper	-9515
▁duncan	-9516
▁genome	-9517
▁layers	-9518
▁evident	-9519
▁minimal	-9520
▁readily	-9521
▁seventh	-9522
▁tribute	-9523
▁abortion	-9524
▁receiver	-9525
▁remember	-9526
▁settings	-9527
▁observers	-9528
▁terrorist	-9529
sk	-9530
cho	-9531
▁51	-9532
educ	-9533
ulous	-9534
▁1979	-9535
▁[[13	-9536
gerald	-9537
▁(1998	-9538
▁cypri	-9539
▁devil	-9540
▁drama	-9541
▁lions	-9542
▁cattle	-9543
▁thirty	-9544
▁cutting	-9545
▁exhibit	-9546
▁injured	-9547
▁vietnam	-9548
▁yankees	-9549
▁[[1996]]	-9550
▁promised	-9551
▁whenever	-9552
▁belonging	-9553
▁cognitive	-9554
▁hitchcock	-9555
▁constantly	-9556
▁directions	-9557
>6	-9558
>82	-9559
deen	-9560
lock	-9561
▁[[9	-9562
▁que	-9563
▁tel	-9564
835</	-9565
added	-9566
▁1982	-9567
▁chop	-9568
▁oral	-9569
argent	-9570
▁bones	-9571
▁farmb	-9572
▁happy	-9573
▁peters	-9574
>82835</	-9575
pakistan	-9576
▁wallace	-9577
▁discrete	-9578
▁allegedly	-9579
▁inherited	-9580
▁obviously	-9581
▁predicted	-9582
▁equatorial	-9583
▁farmbrough	-9584
▁limitations	-9585
massachusetts	-9586
▁modification	-9587
▁sophisticated	-9588
▁technological	-9589
▁naz	-9590
▁ped	-9591
akers	-9592
▁feud	-9593
▁pink	-9594
▁reed	-9595
▁trip	-9596
origin	-9597
▁bread	-9598
▁behalf	-9599
▁undert	-9600
zenegger	-9601
▁100,000	-9602
▁bombing	-9603
▁stating	-9604
▁cardinal	-9605
▁clusters	-9606
▁lawrence	-9607
▁supplied	-9608
▁considers	-9609
▁frederick	-9610
▁successive	-9611
▁transformed	-9612
▁schwarzenegger	-9613
27	-9614
circ	-9615
delt	-9616
dney	-9617
jeff	-9618
▁dot	-9619
▁rub	-9620
delta	-9621
enses	-9622
▁mont	-9623
weight	-9624
▁navig	-9625
▁parks	-9626
▁tense	-9627
biology	-9628
climate	-9629
organic	-9630
▁alchem	-9631
▁harbor	-9632
▁watson	-9633
ountered	-9634
▁buffalo	-9635
▁entries	-9636
▁forcing	-9637
▁samples	-9638
▁totally	-9639
▁trigger	-9640
▁customer	-9641
▁expanding	-9642
▁chancellor	-9643
▁legitimate	-9644
▁designation	-9645
▁encountered	-9646
mem	-9647
▁hd	-9648
acle	-9649
ibly	-9650
only	-9651
rele	-9652
▁xii	-9653
about	-9654
banon	-9655
uador	-9656
▁[[10	-9657
▁jeff	-9658
rupted	-9659
ussels	-9660
▁acted	-9661
▁denver	-9662
▁jargon	-9663
software	-9664
▁epistle	-9665
▁contents	-9666
▁findings	-9667
▁galaxies	-9668
▁thorough	-9669
▁victoria	-9670
▁daughters	-9671
▁economies	-9672
▁inhabited	-9673
dam	-9674
fel	-9675
lta	-9676
sax	-9677
{|"	-9678
▁0,	-9679
ilib	-9680
otto	-9681
wall	-9682
inson	-9683
inted	-9684
ticip	-9685
▁hann	-9686
▁loan	-9687
▁stem	-9688
"">{|"	-9689
danish	-9690
▁16]],	-9691
▁ammon	-9692
▁delta	-9693
▁norse	-9694
icholas	-9695
regular	-9696
▁charts	-9697
▁subsid	-9698
ilibrium	-9699
▁anticip	-9700
▁focuses	-9701
▁package	-9702
▁converse	-9703
▁suspended	-9704
▁equilibrium	-9705
▁expressions	-9706
▁nationality	-9707
▁bibliography	-9708
iraq	-9709
▁\,&	-9710
asant	-9711
▁*199	-9712
▁pole	-9713
advant	-9714
binary	-9715
▁2006.	-9716
▁creed	-9717
▁dying	-9718
▁inaug	-9719
swedish	-9720
▁angles	-9721
▁recept	-9722
▁trials	-9723
▁anthony	-9724
▁bridges	-9725
▁jupiter	-9726
▁sending	-9727
▁sitting	-9728
▁apostles	-9729
▁godzilla	-9730
▁condemned	-9731
▁disadvant	-9732
▁conception	-9733
▁enforcement	-9734
▁nationalist	-9735
▁descriptions	-9736
/&	-9737
np	-9738
weh	-9739
irce	-9740
ught	-9741
▁5]]	-9742
▁bav	-9743
arist	-9744
arrow	-9745
chord	-9746
eroon	-9747
laide	-9748
▁cash	-9749
▁coer	-9750
▁baker	-9751
▁diver	-9752
▁theor	-9753
▁junior	-9754
▁peirce	-9755
▁shaped	-9756
▁traced	-9757
▁arguing	-9758
▁colours	-9759
▁optical	-9760
▁unclear	-9761
universal	-9762
▁advances	-9763
▁enhanced	-9764
▁aristotle	-9765
▁artillery	-9766
▁measuring	-9767
▁preceding	-9768
▁salvation	-9769
▁retirement	-9770
▁anthropology	-9771
▁gravitational	-9772
ez	-9773
eva	-9774
enic	-9775
idad	-9776
▁ram	-9777
▁19]],	-9778
develop	-9779
taxobox	-9780
▁denoted	-9781
▁indiana	-9782
▁assassin	-9783
▁attitude	-9784
▁buddhist	-9785
▁cellular	-9786
▁compiled	-9787
▁simplest	-9788
▁capitalism	-9789
▁preventing	-9790
▁suggesting	-9791
▁vocabulary	-9792
▁controlling	-9793
▁disappeared	-9794
▁participants	-9795
▁opportunities	-9796
cry	-9797
▁(4	-9798
▁ny	-9799
bled	-9800
▁utc	-9801
udwig	-9802
▁[[14	-9803
▁epic	-9804
▁merc	-9805
▁worn	-9806
bedded	-9807
ustion	-9808
▁27]],	-9809
▁accus	-9810
▁astro	-9811
▁chord	-9812
▁elvis	-9813
▁exter	-9814
▁harsh	-9815
▁helps	-9816
raction	-9817
▁condom	-9818
▁harris	-9819
▁landed	-9820
▁silent	-9821
▁gnostic	-9822
▁lighter	-9823
▁liberals	-9824
▁brazilian	-9825
▁populated	-9826
▁suspected	-9827
▁archbishop	-9828
▁eliminated	-9829
▁nineteenth	-9830
conservative	-9831
▁interactions	-9832
▁correspondence	-9833
:19	-9834
ira	-9835
▁38	-9836
area	-9837
elly	-9838
imov	-9839
vent	-9840
atari	-9841
simon	-9842
solar	-9843
▁1995,	-9844
▁conan	-9845
▁modes	-9846
▁seeks	-9847
tically	-9848
▁asimov	-9849
▁reluct	-9850
▁deities	-9851
▁denotes	-9852
▁fifteen	-9853
▁scoring	-9854
▁stanley	-9855
▁synthes	-9856
▁decrease	-9857
▁estimate	-9858
▁severely	-9859
▁churchill	-9860
▁companion	-9861
▁dismissed	-9862
▁palestine	-9863
▁competitions	-9864
▁participated	-9865
%,	-9866
▁1)	-9867
agen	-9868
dave	-9869
guin	-9870
lucose	-9871
▁deleg	-9872
▁drake	-9873
▁fires	-9874
▁kills	-9875
lovakia	-9876
▁afford	-9877
▁heroes	-9878
▁worlds	-9879
▁comprom	-9880
▁iceland	-9881
▁wounded	-9882
voiceless	-9883
▁borrowed	-9884
▁floating	-9885
▁fraction	-9886
▁reflects	-9887
▁suddenly	-9888
▁uncommon	-9889
▁addressed	-9890
▁correctly	-9891
▁responded	-9892
▁reasonable	-9893
▁examination	-9894
▁combinations	-9895
gom	-9896
agne	-9897
▁ing	-9898
▁jim	-9899
elled	-9900
lived	-9901
rious	-9902
gomery	-9903
▁(1996	-9904
▁alloc	-9905
▁decis	-9906
▁rifle	-9907
▁sheet	-9908
abraham	-9909
lemagne	-9910
▁prevail	-9911
▁colombia	-9912
▁resolved	-9913
▁dominican	-9914
afghanistan	-9915
▁substantially	-9916
13	-9917
▁fm	-9918
ding	-9919
iest	-9920
inde	-9921
irms	-9922
leon	-9923
othy	-9924
rage	-9925
unit	-9926
▁ash	-9927
▁bla	-9928
▁nhl	-9929
▁spa	-9930
▁brig	-9931
▁gael	-9932
▁hume	-9933
▁rabb	-9934
▁ascii	-9935
▁bless	-9936
▁franc	-9937
▁culmin	-9938
▁dragon	-9939
▁franco	-9940
▁patron	-9941
▁quotes	-9942
▁wisdom	-9943
▁baroque	-9944
▁belongs	-9945
▁experts	-9946
▁reduces	-9947
▁birthday	-9948
▁demanded	-9949
▁refugees	-9950
▁promoting	-9951
▁households	-9952
▁accordingly	-9953
dab	-9954
▁[[6	-9955
astro	-9956
▁phyl	-9957
except	-9958
trivia	-9959
▁flour	-9960
▁isles	-9961
belgium	-9962
▁burned	-9963
▁cheese	-9964
▁cousin	-9965
▁devast	-9966
▁planes	-9967
▁strips	-9968
▁crossed	-9969
▁generic	-9970
▁lecture	-9971
▁restore	-9972
▁contexts	-9973
▁[[2000]],	-9974
▁customers	-9975
▁introduce	-9976
▁accordance	-9977
▁advantages	-9978
▁internationally	-9979
tra	-9980
ugh	-9981
▁7,	-9982
ribe	-9983
▁abc	-9984
▁ety	-9985
aphys	-9986
otton	-9987
▁lion	-9988
▁prest	-9989
▁resur	-9990
▁rugby	-9991
caption	-9992
▁assets	-9993
▁plates	-9994
▁repair	-9995
germanic	-9996
▁alberta	-9997
▁detected	-9998
▁emerging	-9999
▁machinery	-10000
▁patriarch	-10001
▁practition	-10002
▁discoveries	-10003
▁neighbouring	-10004
oen	-10005
ush	-10006
▁az	-10007
docu	-10008
efef	-10009
jimmy	-10010
▁**[[	-10011
▁1974	-10012
▁auto	-10013
▁figh	-10014
▁wasn	-10015
metric	-10016
▁circa	-10017
▁doors	-10018
▁attain	-10019
▁diesel	-10020
▁layout	-10021
▁powell	-10022
▁virtue	-10023
template	-10024
▁collaps	-10025
▁doctors	-10026
▁lacking	-10027
▁asteroid	-10028
▁expendit	-10029
▁fighters	-10030
▁audiences	-10031
▁dominance	-10032
▁accounting	-10033
▁arithmetic	-10034
▁horizontal	-10035
▁neighboring	-10036
▁restaurants	-10037
▁circumcision	-10038
▁presentation	-10039
▁implementations	-10040
|/	-10041
andy	-10042
▁alg	-10043
chris	-10044
▁*194	-10045
▁vent	-10046
▁arsen	-10047
▁girls	-10048
▁lloyd	-10049
▁talks	-10050
gallery	-10051
islamic	-10052
▁chains	-10053
▁unions	-10054
cultural	-10055
▁editors	-10056
▁legends	-10057
▁recover	-10058
▁retreat	-10059
▁dialogue	-10060
▁elephant	-10061
▁informal	-10062
▁surprise	-10063
▁comprised	-10064
▁orthodoxy	-10065
▁scholarship	-10066
▁availability	-10067
ba	-10068
rep	-10069
beta	-10070
erts	-10071
▁180	-10072
▁20,	-10073
▁shr	-10074
▁brew	-10075
▁tons	-10076
▁(1997	-10077
▁gases	-10078
▁hindi	-10079
▁subsc	-10080
▁uncle	-10081
partial	-10082
verages	-10083
▁discri	-10084
▁insect	-10085
▁postal	-10086
ilateral	-10087
▁ignored	-10088
▁joining	-10089
▁springs	-10090
▁thermal	-10091
▁advocate	-10092
▁applying	-10093
▁doctrines	-10094
▁guitarist	-10095
▁accurately	-10096
500	-10097
sat	-10098
;'''	-10099
▁ltd	-10100
▁vib	-10101
ernst	-10102
gated	-10103
ultan	-10104
▁1975	-10105
▁boas	-10106
▁dian	-10107
▁mans	-10108
celled	-10109
knight	-10110
▁bohem	-10111
▁fatal	-10112
▁flash	-10113
▁overt	-10114
iovanni	-10115
logical	-10116
written	-10117
▁commod	-10118
▁digits	-10119
▁portal	-10120
encyclop	-10121
▁browser	-10122
▁confirm	-10123
▁powered	-10124
▁anywhere	-10125
▁reserved	-10126
▁awareness	-10127
▁qualities	-10128
▁commissioned	-10129
-3	-10130
.),	-10131
bin	-10132
unch	-10133
▁8]]	-10134
▁anx	-10135
▁avo	-10136
▁bog	-10137
▁dys	-10138
▁html	-10139
▁mars	-10140
▁stew	-10141
estial	-10142
govina	-10143
voiced	-10144
▁ahead	-10145
▁anime	-10146
▁arise	-10147
▁judah	-10148
▁worse	-10149
ameters	-10150
atemala	-10151
▁ceased	-10152
▁fuller	-10153
▁seized	-10154
▁avoided	-10155
▁chiefly	-10156
▁essence	-10157
▁locally	-10158
▁padding	-10159
▁transit	-10160
evolution	-10161
▁[[1997]]	-10162
▁advocated	-10163
▁edinburgh	-10164
▁continuity	-10165
▁coordinate	-10166
▁outstanding	-10167
-19	-10168
dna	-10169
pit	-10170
rat	-10171
sal	-10172
kind	-10173
▁gps	-10174
▁nasa	-10175
▁cowbo	-10176
▁imply	-10177
▁polar	-10178
▁schem	-10179
▁stamp	-10180
▁whale	-10181
autical	-10182
supreme	-10183
▁afghan	-10184
▁altered	-10185
▁authent	-10186
▁calgary	-10187
▁friendly	-10188
▁imported	-10189
▁novelist	-10190
▁visiting	-10191
industrial	-10192
▁associate	-10193
▁magazines	-10194
▁resembles	-10195
▁atmospheric	-10196
▁persecution	-10197
loc	-10198
▁ah	-10199
flow	-10200
roat	-10201
▁800	-10202
▁ade	-10203
mouth	-10204
saxon	-10205
▁iowa	-10206
▁wolf	-10207
▁blend	-10208
▁cloud	-10209
▁zappa	-10210
▁prefix	-10211
▁senses	-10212
▁speaks	-10213
▁summar	-10214
congress	-10215
original	-10216
speaking	-10217
▁absorbed	-10218
▁equality	-10219
▁requests	-10220
▁microwave	-10221
▁accessible	-10222
▁geological	-10223
mediterranean	-10224
24	-10225
za	-10226
erb	-10227
jos	-10228
kin	-10229
mars	-10230
▁(1)	-10231
otten	-10232
▁grid	-10233
normal	-10234
number	-10235
▁coerc	-10236
▁fifty	-10237
▁sweet	-10238
finnish	-10239
isphere	-10240
▁picked	-10241
▁vocals	-10242
▁clapton	-10243
▁outcome	-10244
▁promise	-10245
▁forbidden	-10246
▁petroleum	-10247
▁hemisphere	-10248
▁remembered	-10249
▁improvement	-10250
▁proceedings	-10251
▁commercially	-10252
▁overwhelming	-10253
)]	-10254
-0	-10255
ario	-10256
ubes	-10257
▁gem	-10258
geons	-10259
▁beta	-10260
▁leap	-10261
▁pipe	-10262
▁pist	-10263
▁tenn	-10264
electr	-10265
orence	-10266
solini	-10267
▁barry	-10268
▁boost	-10269
▁coven	-10270
▁chemist	-10271
▁galileo	-10272
▁options	-10273
▁pitcher	-10274
▁raising	-10275
argentina	-10276
hungarian	-10277
▁profound	-10278
▁robinson	-10279
▁volcanic	-10280
▁contracts	-10281
▁geometric	-10282
▁mussolini	-10283
▁encryption	-10284
▁introducing	-10285
▁permanently	-10286
▁productions	-10287
▁restoration	-10288
;4&	-10289
ndum	-10290
omes	-10291
plus	-10292
▁jos	-10293
▁luc	-10294
▁seal	-10295
▁2005)	-10296
▁bacon	-10297
▁chape	-10298
▁facto	-10299
▁tanks	-10300
project	-10301
▁asking	-10302
ervation	-10303
▁bipolar	-10304
▁extract	-10305
▁hostile	-10306
▁pronoun	-10307
▁prussia	-10308
▁routine	-10309
▁segment	-10310
▁whereby	-10311
▁bankrupt	-10312
▁handling	-10313
▁[[2005]])	-10314
▁challenged	-10315
▁acknowledged	-10316
▁contributing	-10317
▁implications	-10318
arks	-10319
drew	-10320
lago	-10321
▁/}}	-10322
▁eis	-10323
▁gab	-10324
▁sab	-10325
clide	-10326
emark	-10327
iffel	-10328
▁twin	-10329
manuel	-10330
▁acute	-10331
▁lynch	-10332
clidean	-10333
enhower	-10334
essions	-10335
ipelago	-10336
▁deputy	-10337
▁pilots	-10338
▁sevent	-10339
▁answers	-10340
▁enhance	-10341
▁reinfor	-10342
▁gathered	-10343
▁thoughts	-10344
▁regulated	-10345
▁surrender	-10346
▁eisenhower	-10347
▁prohibited	-10348
▁consideration	-10349
sir	-10350
}}&	-10351
omon	-10352
▁dos	-10353
▁tea	-10354
moved	-10355
irable	-10356
▁1994.	-10357
▁adequ	-10358
▁opens	-10359
▁overs	-10360
▁owing	-10361
▁persu	-10362
▁tries	-10363
▁eugene	-10364
▁slower	-10365
▁strand	-10366
▁dischar	-10367
▁gardens	-10368
▁suppose	-10369
▁benjamin	-10370
▁massacre	-10371
▁monastery	-10372
▁rendering	-10373
▁computation	-10374
▁predecessor	-10375
his	-10376
mid	-10377
▁75	-10378
priv	-10379
adays	-10380
lance	-10381
raine	-10382
welsh	-10383
▁(192	-10384
▁1973	-10385
▁1978	-10386
▁coca	-10387
▁emit	-10388
▁creek	-10389
▁gains	-10390
▁poles	-10391
▁trail	-10392
finland	-10393
▁backed	-10394
▁clause	-10395
▁heated	-10396
▁lights	-10397
▁repeat	-10398
▁suffix	-10399
▁tennis	-10400
benjamin	-10401
▁columns	-10402
▁expense	-10403
▁prepare	-10404
▁licensed	-10405
▁murdered	-10406
▁nowadays	-10407
▁resemble	-10408
▁syllable	-10409
▁cartridge	-10410
▁consistently	-10411
alc	-10412
cht	-10413
umb	-10414
hans	-10415
hero	-10416
▁3]]	-10417
▁faq	-10418
]]'''	-10419
alcoh	-10420
large	-10421
▁fost	-10422
▁lane	-10423
▁teen	-10424
ulsion	-10425
▁13]],	-10426
▁chaos	-10427
▁enact	-10428
alkland	-10429
▁bullet	-10430
▁hunter	-10431
magnetic	-10432
▁atheism	-10433
▁croatia	-10434
▁ethanol	-10435
▁hilbert	-10436
▁paradox	-10437
▁honduras	-10438
▁romantic	-10439
▁websites	-10440
▁scholarly	-10441
▁proportional	-10442
▁unemployment	-10443
>7	-10444
pdf	-10445
▁9,	-10446
anim	-10447
apor	-10448
▁7]]	-10449
▁fib	-10450
hardt	-10451
isaac	-10452
loyed	-10453
▁ceme	-10454
▁gall	-10455
▁ions	-10456
elfare	-10457
larger	-10458
▁abbey	-10459
▁arabs	-10460
▁wants	-10461
turkish	-10462
▁firing	-10463
▁shapes	-10464
▁stroke	-10465
▁suffer	-10466
▁tongue	-10467
▁verses	-10468
calendar	-10469
▁instant	-10470
▁spelled	-10471
▁spirits	-10472
▁stretch	-10473
executive	-10474
jerusalem	-10475
operating	-10476
▁cemetery	-10477
▁monsters	-10478
▁portable	-10479
▁civilians	-10480
▁emergence	-10481
▁mortality	-10482
▁babylonian	-10483
▁combustion	-10484
▁achievement	-10485
▁sufficiently	-10486
▁computational	-10487
64	-10488
fol	-10489
ivan	-10490
stra	-10491
▁exh	-10492
billy	-10493
icily	-10494
ommod	-10495
peace	-10496
prote	-10497
▁1971	-10498
▁calc	-10499
▁ward	-10500
▁ammun	-10501
▁cheap	-10502
▁hegel	-10503
▁coding	-10504
▁dishes	-10505
▁inland	-10506
▁tribal	-10507
independ	-10508
▁beneath	-10509
▁broadly	-10510
▁careful	-10511
▁exhaust	-10512
▁faculty	-10513
▁sinatra	-10514
▁[[1993]]	-10515
▁accommod	-10516
▁integers	-10517
▁conceived	-10518
▁precision	-10519
▁ammunition	-10520
▁confidence	-10521
▁presumably	-10522
▁calculation	-10523
▁demonstrate	-10524
communication	-10525
uci	-10526
19]]	-10527
erge	-10528
ilty	-10529
java	-10530
▁eta	-10531
▁mos	-10532
▁pir	-10533
▁rac	-10534
abama	-10535
comic	-10536
ierce	-10537
santa	-10538
▁29]],	-10539
▁frict	-10540
▁knows	-10541
▁milit	-10542
▁syria	-10543
▁verbs	-10544
semitic	-10545
▁guided	-10546
▁guilty	-10547
▁walter	-10548
ordinary	-10549
▁enlight	-10550
▁shifted	-10551
▁pointing	-10552
▁shipping	-10553
▁excessive	-10554
▁statesman	-10555
▁determines	-10556
▁documented	-10557
▁physiology	-10558
▁strategies	-10559
▁extraordinary	-10560
||	-10561
imp	-10562
mor	-10563
nda	-10564
▁wet	-10565
▁20]]	-10566
▁aged	-10567
▁asks	-10568
▁mike	-10569
bility	-10570
contro	-10571
inence	-10572
▁hoped	-10573
▁weigh	-10574
▁||'''	-10575
▁armour	-10576
▁braves	-10577
▁butler	-10578
▁button	-10579
▁norway	-10580
▁openly	-10581
▁sharon	-10582
▁triple	-10583
▁belgian	-10584
▁cornell	-10585
▁default	-10586
▁drivers	-10587
▁genesis	-10588
▁injuries	-10589
▁periodic	-10590
▁antiquity	-10591
▁improving	-10592
▁overthrow	-10593
▁altogether	-10594
▁interviews	-10595
▁destination	-10596
▁differently	-10597
▁confederation	-10598
rem	-10599
▁db	-10600
;#82	-10601
ippi	-10602
odia	-10603
▁bnp	-10604
▁duc	-10605
trans	-10606
urday	-10607
▁**''	-10608
▁dogs	-10609
▁eggs	-10610
▁gift	-10611
▁kiss	-10612
▁ordo	-10613
▁sung	-10614
▁freem	-10615
▁gross	-10616
▁teeth	-10617
issions	-10618
issippi	-10619
▁cannon	-10620
▁derive	-10621
▁ingred	-10622
▁iranian	-10623
▁listing	-10624
▁ancestry	-10625
▁morality	-10626
▁anchorage	-10627
▁argentine	-10628
▁successes	-10629
▁accomplish	-10630
▁automobile	-10631
▁personally	-10632
▁interchange	-10633
92	-10634
aa	-10635
▁kb	-10636
gery	-10637
oons	-10638
▁(2)	-10639
▁120	-10640
▁fas	-10641
▁kid	-10642
urice	-10643
▁aest	-10644
▁carb	-10645
▁mamm	-10646
▁swim	-10647
ronald	-10648
▁1993,	-10649
▁1995.	-10650
▁coron	-10651
▁haiti	-10652
▁linux	-10653
▁mason	-10654
▁penet	-10655
▁axioms	-10656
▁bogart	-10657
▁sacram	-10658
▁vacuum	-10659
▁vienna	-10660
▁dragons	-10661
▁escaped	-10662
▁starred	-10663
▁surgery	-10664
▁[[1995]]	-10665
▁eventual	-10666
▁differing	-10667
▁insurance	-10668
alternative	-10669
▁practically	-10670
ym	-10671
five	-10672
▁[[8	-10673
▁bmw	-10674
▁gol	-10675
ceive	-10676
ellar	-10677
minus	-10678
▁cole	-10679
finite	-10680
▁dimin	-10681
▁welsh	-10682
ocolate	-10683
▁anatom	-10684
▁enters	-10685
▁rating	-10686
gramming	-10687
rational	-10688
▁airways	-10689
▁ideology	-10690
▁catherine	-10691
▁chocolate	-10692
▁irregular	-10693
▁submitted	-10694
▁victories	-10695
▁navigation	-10696
▁governmental	-10697
▁transactions	-10698
cdot	-10699
celt	-10700
enet	-10701
style	-10702
▁*196	-10703
▁21]]	-10704
▁adds	-10705
▁push	-10706
athing	-10707
dragon	-10708
nation	-10709
▁1991,	-10710
▁anglo	-10711
▁herze	-10712
▁quote	-10713
genetic	-10714
▁accent	-10715
▁pocket	-10716
▁recall	-10717
▁regnum	-10718
▁contend	-10719
▁coupled	-10720
▁buddhism	-10721
▁outbreak	-10722
▁reformed	-10723
artificial	-10724
▁combining	-10725
▁communism	-10726
▁departure	-10727
▁guerrilla	-10728
▁necessity	-10729
▁undergrad	-10730
▁attractive	-10731
▁communists	-10732
▁contradict	-10733
▁mysterious	-10734
▁herzegovina	-10735
▁abbreviation	-10736
cp	-10737
wa	-10738
umn	-10739
▁##	-10740
▁48	-10741
aurs	-10742
iece	-10743
nick	-10744
▁blo	-10745
▁jum	-10746
▁vic	-10747
▁1972	-10748
▁prol	-10749
▁reef	-10750
closed	-10751
▁cubic	-10752
▁grass	-10753
▁zones	-10754
utenant	-10755
▁eighth	-10756
▁transp	-10757
semitism	-10758
▁cypriot	-10759
▁favored	-10760
▁mexican	-10761
▁precurs	-10762
▁profits	-10763
▁trouble	-10764
▁[[1994]]	-10765
▁hannibal	-10766
▁attacking	-10767
▁dinosaurs	-10768
▁convenient	-10769
▁celebration	-10770
▁christopher	-10771
▁architectural	-10772
bact	-10773
zing	-10774
oking	-10775
▁assy	-10776
▁bord	-10777
▁hobb	-10778
▁lisp	-10779
▁remn	-10780
▁span	-10781
▁till	-10782
engths	-10783
events	-10784
▁disco	-10785
▁dolph	-10786
▁grade	-10787
▁inuit	-10788
▁monks	-10789
▁wells	-10790
ladimir	-10791
sterdam	-10792
▁finger	-10793
▁warner	-10794
▁airline	-10795
▁counted	-10796
▁desktop	-10797
▁leagues	-10798
▁mineral	-10799
caribbean	-10800
gregorian	-10801
▁[[2006]]	-10802
▁covenant	-10803
▁expelled	-10804
▁peaceful	-10805
▁[[2001]],	-10806
▁aluminium	-10807
▁rejection	-10808
▁elementary	-10809
▁parameters	-10810
▁coordinates	-10811
▁derivatives	-10812
▁manuscripts	-10813
▁collectively	-10814
▁municipality	-10815
▁reproduction	-10816
kh	-10817
rim	-10818
asma	-10819
earl	-10820
▁sed	-10821
speed	-10822
▁beck	-10823
▁emig	-10824
▁inch	-10825
ricane	-10826
▁excav	-10827
▁loved	-10828
▁maced	-10829
▁poets	-10830
▁sends	-10831
▁steam	-10832
▁breaks	-10833
▁breton	-10834
▁pascal	-10835
▁thesis	-10836
▁(2005).	-10837
▁barrier	-10838
▁labeled	-10839
▁fragment	-10840
▁convicted	-10841
▁voluntary	-10842
▁collaboration	-10843
▁concentrations	-10844
1</	-10845
chy	-10846
▁42	-10847
dark	-10848
euro	-10849
prin	-10850
▁15,	-10851
▁9]]	-10852
▁rig	-10853
allas	-10854
asian	-10855
berts	-10856
larry	-10857
▁1977	-10858
▁hack	-10859
▁pace	-10860
ancing	-10861
▁=====	-10862
▁allan	-10863
▁rooms	-10864
▁slang	-10865
▁steve	-10866
angered	-10867
▁chapel	-10868
▁distur	-10869
▁festiv	-10870
▁wishes	-10871
▁estonia	-10872
▁glucose	-10873
▁immense	-10874
▁lessons	-10875
▁roberts	-10876
gutenberg	-10877
▁binomial	-10878
▁feelings	-10879
▁guarante	-10880
▁numbered	-10881
▁protests	-10882
▁consumers	-10883
▁contempor	-10884
▁harmonica	-10885
▁approached	-10886
▁impression	-10887
▁innovation	-10888
▁approximate	-10889
▁arrangements	-10890
▁homosexuality	-10891
bri	-10892
lah	-10893
mig	-10894
obi	-10895
▁1/	-10896
dist	-10897
heav	-10898
iser	-10899
jour	-10900
▁bag	-10901
▁dru	-10902
aysia	-10903
udson	-10904
▁11]]	-10905
▁1900	-10906
▁acou	-10907
▁fing	-10908
▁leto	-10909
annica	-10910
energy	-10911
enment	-10912
▁axiom	-10913
▁carth	-10914
▁click	-10915
▁draws	-10916
▁malay	-10917
judaism	-10918
▁autobi	-10919
▁filmed	-10920
▁loaded	-10921
▁monaco	-10922
▁oppose	-10923
▁sultan	-10924
▁banking	-10925
▁combine	-10926
▁freight	-10927
▁stewart	-10928
▁carnegie	-10929
▁embedded	-10930
▁*{{1911}}	-10931
▁antarctic	-10932
▁compositions	-10933
map	-10934
yes	-10935
▁gm	-10936
▁rh	-10937
arms	-10938
asts	-10939
frac	-10940
ouri	-10941
▁cau	-10942
leans	-10943
sburg	-10944
▁dust	-10945
▁vide	-10946
cities	-10947
labour	-10948
▁deity	-10949
▁imper	-10950
▁boards	-10951
▁murray	-10952
▁rogers	-10953
▁shadow	-10954
▁albania	-10955
▁orleans	-10956
▁rebuild	-10957
▁suburbs	-10958
▁assuming	-10959
▁renowned	-10960
▁competitors	-10961
ett	-10962
jon	-10963
coor	-10964
olis	-10965
otia	-10966
▁12,	-10967
▁[[7	-10968
▁aus	-10969
▁cue	-10970
▁tie	-10971
▁aims	-10972
▁nerv	-10973
efefef	-10974
nesota	-10975
▁artif	-10976
▁georg	-10977
▁lawsu	-10978
▁scots	-10979
itional	-10980
onesian	-10981
▁retail	-10982
▁scotia	-10983
▁upgrad	-10984
▁cookies	-10985
▁deposed	-10986
▁grouped	-10987
▁healthy	-10988
▁knowing	-10989
▁nervous	-10990
▁offense	-10991
▁mistaken	-10992
▁ratified	-10993
▁renaissance	-10994
▁professionals	-10995
dub	-10996
phy	-10997
▁37	-10998
▁dd	-10999
00]]	-11000
mean	-11001
▁alp	-11002
▁cum	-11003
adolf	-11004
avier	-11005
▁1976	-11006
▁luck	-11007
▁31]],	-11008
▁burns	-11009
▁cryst	-11010
▁fails	-11011
▁filed	-11012
▁kelly	-11013
▁nazis	-11014
▁stere	-11015
▁(1996)	-11016
▁listen	-11017
▁sequel	-11018
▁ferment	-11019
▁heating	-11020
▁holland	-11021
▁knights	-11022
▁pursued	-11023
▁revived	-11024
▁encoding	-11025
▁rotating	-11026
▁withdrew	-11027
▁scripture	-11028
▁traveling	-11029
▁witnesses	-11030
▁definitive	-11031
▁montgomery	-11032
cou	-11033
sar	-11034
yan	-11035
▁#1	-11036
▁mp	-11037
cium	-11038
corn	-11039
evil	-11040
gans	-11041
▁abu	-11042
▁aux	-11043
encer	-11044
▁[[11	-11045
▁wore	-11046
▁1990,	-11047
▁hered	-11048
▁innov	-11049
species	-11050
▁ambass	-11051
▁nowrap	-11052
▁organs	-11053
▁centres	-11054
▁cooling	-11055
▁passion	-11056
▁threats	-11057
▁viewers	-11058
▁altitude	-11059
▁darkness	-11060
▁footnote	-11061
▁subgroup	-11062
▁viscount	-11063
▁youngest	-11064
▁*[[2005]]	-11065
▁astronaut	-11066
▁eliminate	-11067
palestinian	-11068
▁acceleration	-11069
86	-11070
aza	-11071
glo	-11072
sch	-11073
▁5%	-11074
abil	-11075
uine	-11076
▁20%	-11077
▁chi	-11078
▁fbi	-11079
▁ski	-11080
▁tip	-11081
alism	-11082
begin	-11083
integ	-11084
itals	-11085
night	-11086
vised	-11087
▁flew	-11088
▁fold	-11089
▁inqu	-11090
▁sket	-11091
olving	-11092
▁hopes	-11093
▁posts	-11094
algebra	-11095
▁poorly	-11096
▁confuci	-11097
▁cooking	-11098
▁genuine	-11099
▁infobox	-11100
▁talking	-11101
▁temples	-11102
▁[[1991]]	-11103
▁factions	-11104
▁feedback	-11105
▁momentum	-11106
▁sessions	-11107
▁wireless	-11108
▁[[2002]],	-11109
▁accession	-11110
▁bulgarian	-11111
▁episcopal	-11112
▁criticisms	-11113
▁incomplete	-11114
▁ironically	-11115
▁polynomial	-11116
▁vulnerable	-11117
hz	-11118
synt	-11119
▁pig	-11120
arked	-11121
bruce	-11122
isour	-11123
liver	-11124
▁23]]	-11125
▁[[21	-11126
▁clon	-11127
▁dart	-11128
▁gaul	-11129
▁gear	-11130
▁horm	-11131
▁wait	-11132
▁chips	-11133
▁filmm	-11134
▁marqu	-11135
▁optim	-11136
isource	-11137
tsburgh	-11138
▁divers	-11139
▁eiffel	-11140
▁rebels	-11141
▁reveal	-11142
▁taiwan	-11143
▁talent	-11144
▁warhol	-11145
▁literal	-11146
▁dynamics	-11147
▁friction	-11148
▁nobility	-11149
▁revenues	-11150
republican	-11151
▁authentic	-11152
▁canonical	-11153
▁respected	-11154
▁friendship	-11155
▁evangelical	-11156
6%	-11157
det	-11158
▁\\	-11159
amil	-11160
dead	-11161
imil	-11162
inst	-11163
kina	-11164
lore	-11165
olly	-11166
room	-11167
icing	-11168
lithu	-11169
▁1918	-11170
▁ease	-11171
▁elli	-11172
▁java	-11173
▁tick	-11174
consin	-11175
roscop	-11176
simple	-11177
▁botan	-11178
▁freew	-11179
▁homer	-11180
▁isaac	-11181
▁ninth	-11182
▁voiced	-11183
constant	-11184
▁bicycle	-11185
▁classis	-11186
▁explored	-11187
▁grandson	-11188
▁marshall	-11189
▁thirteen	-11190
▁[[1999]],	-11191
▁dictators	-11192
▁scattered	-11193
▁trademark	-11194
▁nomination	-11195
▁switzerland	-11196
▁multiplication	-11197
;,	-11198
plan	-11199
▁isn	-11200
▁maj	-11201
ience	-11202
▁10]]	-11203
▁1919	-11204
▁dave	-11205
▁inev	-11206
▁whit	-11207
ciples	-11208
iliary	-11209
person	-11210
▁brass	-11211
▁delay	-11212
▁fried	-11213
▁iraqi	-11214
▁morph	-11215
iceland	-11216
▁brings	-11217
▁buddha	-11218
▁perpet	-11219
▁static	-11220
▁anxiety	-11221
▁implied	-11222
▁mammals	-11223
▁renewed	-11224
▁rounded	-11225
hollywood	-11226
▁controll	-11227
▁excluded	-11228
▁defending	-11229
▁exercised	-11230
▁organised	-11231
▁possessed	-11232
▁scandinav	-11233
▁astronomer	-11234
▁cincinnati	-11235
▁imprisoned	-11236
▁interference	-11237
exp	-11238
ffe	-11239
hra	-11240
▁aa	-11241
adic	-11242
vice	-11243
▁13,	-11244
▁24,	-11245
ashed	-11246
media	-11247
▁12]]	-11248
▁cosm	-11249
▁fees	-11250
▁pump	-11251
▁unic	-11252
)]].''	-11253
▁chick	-11254
▁prose	-11255
▁spawn	-11256
▁spite	-11257
physics	-11258
▁reagan	-11259
▁traces	-11260
▁acquire	-11261
▁comfort	-11262
▁dickens	-11263
▁inverse	-11264
▁reveals	-11265
▁streams	-11266
▁waiting	-11267
cleveland	-11268
▁lectures	-11269
▁prisoner	-11270
▁switched	-11271
▁analogous	-11272
▁discusses	-11273
▁requested	-11274
▁sculpture	-11275
▁purchasing	-11276
▁mathematicians	-11277
0,	-11278
yr	-11279
437	-11280
bah	-11281
dia	-11282
nik	-11283
▁ae	-11284
emic	-11285
kenn	-11286
▁amd	-11287
▁fur	-11288
aucer	-11289
ayman	-11290
thood	-11291
▁brut	-11292
▁isot	-11293
▁unex	-11294
▁dozen	-11295
▁gamma	-11296
▁grave	-11297
▁moses	-11298
▁neare	-11299
▁quiet	-11300
▁reloc	-11301
enhagen	-11302
network	-11303
▁bacter	-11304
▁cataly	-11305
▁pounds	-11306
election	-11307
▁chaucer	-11308
▁corinth	-11309
▁failing	-11310
▁handled	-11311
▁payment	-11312
▁utility	-11313
▁archives	-11314
▁choosing	-11315
▁duration	-11316
▁interval	-11317
▁priority	-11318
▁prompted	-11319
▁treaties	-11320
▁basically	-11321
▁encounter	-11322
▁pressures	-11323
▁alternatively	-11324
▁effectiveness	-11325
ito	-11326
arct	-11327
ardo	-11328
live	-11329
▁dns	-11330
▁gpl	-11331
estab	-11332
itars	-11333
plant	-11334
produ	-11335
stone	-11336
▁14]]	-11337
▁1967	-11338
▁corp	-11339
▁dioc	-11340
▁glad	-11341
▁unix	-11342
▁cache	-11343
▁flags	-11344
▁paved	-11345
▁regul	-11346
arctica	-11347
▁autumn	-11348
▁defect	-11349
▁gaelic	-11350
▁jordan	-11351
▁nobles	-11352
▁depress	-11353
▁fastest	-11354
▁guitars	-11355
▁mankind	-11356
▁obscure	-11357
▁sustain	-11358
▁abundant	-11359
▁weakness	-11360
▁numerical	-11361
▁princeton	-11362
▁submarine	-11363
▁extensions	-11364
▁referendum	-11365
▁abbreviated	-11366
▁charlemagne	-11367
▁constitutes	-11368
▁programmers	-11369
wi	-11370
bad	-11371
omed	-11372
umed	-11373
▁19,	-11374
ampsh	-11375
heart	-11376
ochem	-11377
▁furn	-11378
▁jane	-11379
▁lock	-11380
▁peer	-11381
▁roof	-11382
lected	-11383
▁1992,	-11384
▁1993.	-11385
▁hamas	-11386
▁phill	-11387
douglas	-11388
rietary	-11389
▁arabia	-11390
▁cycles	-11391
▁enable	-11392
▁exiled	-11393
▁fruits	-11394
▁hampsh	-11395
▁rescue	-11396
▁scales	-11397
▁wonder	-11398
▁elector	-11399
▁embassy	-11400
▁onwards	-11401
▁simpler	-11402
▁[[1992]]	-11403
▁comprise	-11404
▁cylinder	-11405
▁download	-11406
▁informed	-11407
▁alcoholic	-11408
▁believing	-11409
▁hampshire	-11410
▁prevalent	-11411
▁travelled	-11412
▁enterprise	-11413
▁impressive	-11414
▁conversation	-11415
▁economically	-11416
-4	-11417
rec	-11418
acci	-11419
fall	-11420
oire	-11421
▁ads	-11422
▁extr	-11423
▁prox	-11424
orient	-11425
virgin	-11426
▁(1993	-11427
▁oxide	-11428
bernard	-11429
▁header	-11430
▁hobbes	-11431
▁mirror	-11432
▁muscle	-11433
▁reward	-11434
▁rocket	-11435
▁supers	-11436
▁affects	-11437
▁annexed	-11438
▁fulfill	-11439
▁marking	-11440
▁solving	-11441
▁warning	-11442
▁welfare	-11443
petroleum	-11444
▁adelaide	-11445
▁albanian	-11446
▁consumed	-11447
▁inserted	-11448
▁reversed	-11449
▁timeline	-11450
▁traveled	-11451
▁comprises	-11452
▁viewpoint	-11453
philippines	-11454
▁attraction	-11455
▁conversely	-11456
▁vegetation	-11457
▁catholicism	-11458
▁incorporate	-11459
ku	-11460
nl	-11461
dar	-11462
oak	-11463
lets	-11464
pian	-11465
punk	-11466
▁700	-11467
▁95%	-11468
arded	-11469
odies	-11470
▁harp	-11471
▁oxid	-11472
▁arena	-11473
protein	-11474
▁agosto	-11475
▁browns	-11476
▁fiscal	-11477
▁hamlet	-11478
▁incomp	-11479
▁indies	-11480
▁merger	-11481
▁metric	-11482
▁solved	-11483
omorphic	-11484
▁familia	-11485
▁flowers	-11486
▁harmony	-11487
▁princes	-11488
▁arkansas	-11489
▁coercion	-11490
▁genealog	-11491
▁cancelled	-11492
▁earnhardt	-11493
▁lifestyle	-11494
▁occurrence	-11495
▁archipelago	-11496
▁temporarily	-11497
▁continuation	-11498
iac	-11499
avis	-11500
omal	-11501
rite	-11502
▁rab	-11503
▁vin	-11504
franz	-11505
ierra	-11506
illes	-11507
ocols	-11508
peare	-11509
▁gran	-11510
period	-11511
▁forty	-11512
▁haven	-11513
▁stack	-11514
▁valle	-11515
anthony	-11516
▁beavis	-11517
▁cosmic	-11518
▁famine	-11519
▁forums	-11520
▁pursue	-11521
▁shakes	-11522
▁timber	-11523
medieval	-11524
▁forever	-11525
▁loosely	-11526
education	-11527
molecular	-11528
▁confined	-11529
▁connects	-11530
▁overcome	-11531
▁prophets	-11532
▁festivals	-11533
▁merchants	-11534
▁protocols	-11535
▁victorian	-11536
▁attendance	-11537
▁destroying	-11538
▁travelling	-11539
▁shakespeare	-11540
9;	-11541
iji	-11542
▁gy	-11543
file	-11544
umen	-11545
▁90%	-11546
atter	-11547
croat	-11548
edict	-11549
opoly	-11550
▁1969	-11551
▁bull	-11552
▁eras	-11553
mostly	-11554
▁cyber	-11555
▁keeps	-11556
▁panel	-11557
▁sweep	-11558
florida	-11559
romania	-11560
▁amazon	-11561
▁dental	-11562
▁orbits	-11563
umenical	-11564
▁choices	-11565
▁cornish	-11566
▁fingers	-11567
▁inherit	-11568
▁telling	-11569
ferdinand	-11570
▁converts	-11571
▁croatian	-11572
▁decisive	-11573
▁firearms	-11574
▁merchant	-11575
▁senators	-11576
▁tourists	-11577
▁attitudes	-11578
▁calculate	-11579
▁coastline	-11580
▁realistic	-11581
▁aggressive	-11582
▁collecting	-11583
▁formulated	-11584
▁practitioners	-11585
▁electromagnetic	-11586
.</	-11587
abel	-11588
fant	-11589
ipse	-11590
oxide	-11591
syria	-11592
▁1911	-11593
▁25]]	-11594
▁odds	-11595
▁ride	-11596
▁semi	-11597
ptions	-11598
▁1989,	-11599
▁ambit	-11600
▁drove	-11601
▁infam	-11602
▁myths	-11603
▁reads	-11604
▁troll	-11605
▁[[1930	-11606
▁athlet	-11607
▁disapp	-11608
▁feared	-11609
▁suited	-11610
▁traded	-11611
▁closing	-11612
▁couples	-11613
▁divorce	-11614
▁fascist	-11615
▁scandal	-11616
▁schemes	-11617
▁aberdeen	-11618
▁focusing	-11619
▁preceded	-11620
▁unstable	-11621
▁ambitious	-11622
▁amplifier	-11623
▁releasing	-11624
▁specially	-11625
▁associations	-11626
▁possibilities	-11627
>3	-11628
.).	-11629
ato	-11630
eee	-11631
iry	-11632
▁bj	-11633
stub	-11634
novel	-11635
▁26]]	-11636
▁ethn	-11637
▁ieee	-11638
celona	-11639
▁crack	-11640
▁mines	-11641
herbert	-11642
▁genius	-11643
▁hardly	-11644
▁motors	-11645
▁occupy	-11646
▁slavic	-11647
entative	-11648
▁emotion	-11649
▁travels	-11650
▁walking	-11651
▁counting	-11652
▁defended	-11653
▁explorer	-11654
▁infected	-11655
▁[[2004]])	-11656
▁believers	-11657
▁celebrate	-11658
▁motivated	-11659
▁platforms	-11660
▁preservation	-11661
ek	-11662
gs	-11663
2;)	-11664
furt	-11665
vals	-11666
▁185	-11667
▁cer	-11668
bacco	-11669
nings	-11670
onics	-11671
paved	-11672
wales	-11673
▁16]]	-11674
▁1966	-11675
▁1968	-11676
▁19]]	-11677
▁puts	-11678
claude	-11679
▁1990.	-11680
▁1991.	-11681
amation	-11682
notable	-11683
▁harder	-11684
▁hollow	-11685
estimate	-11686
obsolete	-11687
▁conform	-11688
▁masters	-11689
▁deployed	-11690
▁humorous	-11691
▁prevents	-11692
▁stanford	-11693
▁gathering	-11694
▁chronicles	-11695
▁conjunction	-11696
▁popularized	-11697
▁residential	-11698
▁undergraduate	-11699
▁specifications	-11700
aic	-11701
atal	-11702
nasa	-11703
assed	-11704
georg	-11705
jerry	-11706
lysis	-11707
▁bore	-11708
▁cubs	-11709
▁gest	-11710
▁prey	-11711
▁seas	-11712
atican	-11713
magnus	-11714
strong	-11715
▁feast	-11716
▁relay	-11717
▁swing	-11718
alfonso	-11719
babylon	-11720
▁(1994)	-11721
▁anchor	-11722
▁burial	-11723
▁counts	-11724
▁gibson	-11725
▁guards	-11726
▁handed	-11727
▁hearts	-11728
▁ammonia	-11729
▁eritrea	-11730
▁insight	-11731
▁soundtra	-11732
▁footnotes	-11733
▁signature	-11734
▁strongest	-11735
▁challenges	-11736
▁performers	-11737
▁propaganda	-11738
▁theologian	-11739
▁departments	-11740
▁counterparts	-11741
▁discrimination	-11742
>*	-11743
dde	-11744
mis	-11745
osy	-11746
▁2)	-11747
>*</	-11748
grav	-11749
hugo	-11750
mill	-11751
ools	-11752
▁[[:	-11753
▁sid	-11754
▁yes	-11755
▁}}&	-11756
chile	-11757
harma	-11758
seven	-11759
tools	-11760
▁mice	-11761
▁obst	-11762
▁|199	-11763
aments	-11764
ddeeff	-11765
▁della	-11766
▁pride	-11767
lesiast	-11768
▁agenda	-11769
▁fierce	-11770
▁libert	-11771
▁parody	-11772
▁precip	-11773
▁spears	-11774
▁bengals	-11775
▁passive	-11776
▁ratings	-11777
telephone	-11778
▁oriented	-11779
navigation	-11780
▁assembled	-11781
▁collapsed	-11782
▁graduated	-11783
▁seemingly	-11784
▁authorized	-11785
▁ecclesiast	-11786
▁hereditary	-11787
▁reflecting	-11788
▁attractions	-11789
|[	-11790
aga	-11791
even	-11792
udio	-11793
▁]}}	-11794
esian	-11795
▁sick	-11796
matrix	-11797
repren	-11798
▁alger	-11799
▁arbor	-11800
▁fract	-11801
▁rises	-11802
▁ruins	-11803
through	-11804
▁edmund	-11805
▁funded	-11806
▁rhythm	-11807
▁betting	-11808
▁conclus	-11809
▁tallest	-11810
▁critique	-11811
▁folklore	-11812
▁honorary	-11813
▁tactical	-11814
▁targeted	-11815
▁entrepren	-11816
▁forgotten	-11817
▁inability	-11818
▁recurring	-11819
▁prosperity	-11820
▁theatrical	-11821
irt	-11822
lee	-11823
sts	-11824
anne	-11825
iami	-11826
trad	-11827
▁aol	-11828
adder	-11829
freed	-11830
helor	-11831
ishes	-11832
▁bars	-11833
▁cros	-11834
▁deny	-11835
▁dish	-11836
▁flaw	-11837
▁hate	-11838
▁nose	-11839
▁saul	-11840
atross	-11841
celtic	-11842
chrono	-11843
estone	-11844
revert	-11845
▁cease	-11846
▁collo	-11847
▁firms	-11848
century	-11849
ferrari	-11850
freedom	-11851
▁ascend	-11852
▁drinks	-11853
▁enigma	-11854
▁mature	-11855
▁memoir	-11856
▁appeals	-11857
▁arsenal	-11858
▁costume	-11859
▁crowned	-11860
▁debated	-11861
▁devised	-11862
▁erected	-11863
▁fathers	-11864
▁fossils	-11865
▁linking	-11866
▁relates	-11867
▁remarks	-11868
▁skilled	-11869
▁touring	-11870
▁limiting	-11871
electrical	-11872
interstate	-11873
▁albatross	-11874
▁cardinals	-11875
▁fantastic	-11876
▁synthetic	-11877
▁programmes	-11878
▁prominence	-11879
>22	-11880
cam	-11881
cru	-11882
dun	-11883
mud	-11884
wil	-11885
▁2:	-11886
▁nm	-11887
▁pi	-11888
lage	-11889
▁ira	-11890
▁15]]	-11891
▁17]]	-11892
▁balk	-11893
▁pled	-11894
ferent	-11895
listen	-11896
▁blade	-11897
▁bombs	-11898
▁minim	-11899
▁multi	-11900
▁peers	-11901
▁spons	-11902
▁cipher	-11903
▁herald	-11904
▁lacked	-11905
▁suspic	-11906
▁violin	-11907
▁wholly	-11908
▁yahweh	-11909
aircraft	-11910
vertical	-11911
▁fertile	-11912
▁observe	-11913
▁pursuit	-11914
socialist	-11915
▁aquarium	-11916
▁elevated	-11917
▁enforced	-11918
▁licenses	-11919
▁nintendo	-11920
▁olympics	-11921
▁artifacts	-11922
▁prototype	-11923
▁britannica	-11924
▁everywhere	-11925
▁innovative	-11926
▁simplified	-11927
▁successors	-11928
▁innovations	-11929
▁enlightenment	-11930
camb	-11931
elts	-11932
▁0.4	-11933
▁30%	-11934
▁irc	-11935
▁jac	-11936
▁jet	-11937
bobby	-11938
▁22]]	-11939
▁ally	-11940
▁beli	-11941
▁buck	-11942
▁dawn	-11943
▁mask	-11944
▁pill	-11945
eltsin	-11946
ishing	-11947
mental	-11948
perate	-11949
▁angel	-11950
▁helen	-11951
▁innoc	-11952
▁premi	-11953
▁rebel	-11954
▁arctic	-11955
▁carved	-11956
▁eldest	-11957
▁boiling	-11958
▁ecuador	-11959
▁fascism	-11960
▁resolve	-11961
▁retains	-11962
▁strikes	-11963
▁yeltsin	-11964
▁cameroon	-11965
▁climbing	-11966
▁februari	-11967
▁reconcil	-11968
▁sporting	-11969
▁symphony	-11970
sufficient	-11971
▁accepting	-11972
▁casualties	-11973
▁ceremonial	-11974
▁comprising	-11975
▁initiative	-11976
▁grammatical	-11977
▁commissioner	-11978
bby	-11979
bow	-11980
▁34	-11981
▁dh	-11982
alin	-11983
fast	-11984
▁6]]	-11985
▁dre	-11986
ernel	-11987
kevin	-11988
linux	-11989
osion	-11990
▁[[30	-11991
▁bach	-11992
▁clay	-11993
▁euph	-11994
▁seed	-11995
baltic	-11996
confed	-11997
sodium	-11998
▁drain	-11999
▁dwell	-12000
▁eugen	-12001
▁heret	-12002
▁heter	-12003
▁sagan	-12004
▁verde	-12005
▁wavel	-12006
▁wives	-12007
matthew	-12008
▁boxing	-12009
▁diving	-12010
▁immune	-12011
▁korean	-12012
▁stalin	-12013
▁testim	-12014
▁walker	-12015
▁yields	-12016
▁credits	-12017
▁induced	-12018
▁satisfy	-12019
▁feminist	-12020
▁flexible	-12021
▁interven	-12022
▁throwing	-12023
▁detection	-12024
▁highlands	-12025
▁violation	-12026
confederate	-12027
aterrestrial	-12028
▁allegations	-12029
▁contributor	-12030
gay	-12031
haw	-12032
iki	-12033
iso	-12034
wii	-12035
airy	-12036
fire	-12037
folk	-12038
lead	-12039
mont	-12040
odyn	-12041
pert	-12042
requ	-12043
▁0.5	-12044
▁40%	-12045
▁kit	-12046
▁mhz	-12047
alone	-12048
hawai	-12049
lists	-12050
sound	-12051
tiary	-12052
▁13]]	-12053
▁faso	-12054
▁jose	-12055
census	-12056
elines	-12057
global	-12058
ulsory	-12059
vector	-12060
▁1986,	-12061
▁2,000	-12062
▁alice	-12063
▁glory	-12064
▁ridge	-12065
▁theft	-12066
thernet	-12067
▁demons	-12068
▁paying	-12069
▁phylum	-12070
▁relies	-12071
odynamic	-12072
▁bavaria	-12073
▁exercis	-12074
▁fortune	-12075
▁healing	-12076
▁honored	-12077
▁hubbard	-12078
▁monthly	-12079
▁[[1990]]	-12080
▁dominate	-12081
▁ethernet	-12082
▁nitrogen	-12083
▁decreased	-12084
▁guarantee	-12085
▁isolation	-12086
▁wisconsin	-12087
▁dependence	-12088
▁economists	-12089
▁guidelines	-12090
▁volunteers	-12091
▁congressional	-12092
▁contemporaries	-12093
cow	-12094
chen	-12095
iffs	-12096
kore	-12097
▁bac	-12098
ersed	-12099
ocide	-12100
▁1964	-12101
▁rite	-12102
culiar	-12103
culine	-12104
ludwig	-12105
▁antib	-12106
▁spont	-12107
atlanta	-12108
▁arnold	-12109
▁eminem	-12110
▁fitted	-12111
▁modest	-12112
▁oscill	-12113
▁relied	-12114
▁tigers	-12115
▁(2004).	-12116
▁conquer	-12117
▁declare	-12118
▁doubled	-12119
▁enzymes	-12120
▁nominal	-12121
▁viewing	-12122
authority	-12123
indonesia	-12124
▁peculiar	-12125
▁segments	-12126
▁tensions	-12127
▁validity	-12128
▁etymology	-12129
▁masculine	-12130
▁nicknamed	-12131
▁associates	-12132
▁earthquake	-12133
▁preference	-12134
▁substitute	-12135
▁vegetables	-12136
▁nationalism	-12137
▁municipalities	-12138
12	-12139
tl	-12140
'':	-12141
aka	-12142
ora	-12143
▁1%	-12144
ablo	-12145
arse	-12146
gean	-12147
nals	-12148
prob	-12149
▁ace	-12150
▁bid	-12151
▁esp	-12152
▁gos	-12153
ctive	-12154
ongol	-12155
urban	-12156
▁1948	-12157
▁flam	-12158
johnny	-12159
urated	-12160
▁armor	-12161
▁griff	-12162
▁icons	-12163
▁lying	-12164
▁minds	-12165
limited	-12166
natives	-12167
▁(1992)	-12168
▁2005}}	-12169
▁fisher	-12170
▁phases	-12171
▁pulled	-12172
tropical	-12173
▁broader	-12174
▁cowboys	-12175
▁motorcy	-12176
▁secured	-12177
▁surname	-12178
singapore	-12179
▁freedoms	-12180
▁journals	-12181
▁piercing	-12182
▁sometime	-12183
▁treating	-12184
▁treatise	-12185
rightarrow	-12186
▁attribute	-12187
▁fundament	-12188
▁proceeded	-12189
▁completing	-12190
▁enthusiast	-12191
▁lieutenant	-12192
▁disciplines	-12193
cu	-12194
clu	-12195
eda	-12196
moh	-12197
ttp	-12198
▁ok	-12199
gang	-12200
icle	-12201
igor	-12202
quad	-12203
▁000	-12204
▁gap	-12205
▁ipa	-12206
▁kas	-12207
iable	-12208
parov	-12209
▁18]]	-12210
▁aclu	-12211
▁hipp	-12212
▁vend	-12213
▁zeus	-12214
deaths	-12215
escope	-12216
profit	-12217
valent	-12218
▁divis	-12219
▁illeg	-12220
▁tours	-12221
enistic	-12222
knights	-12223
leading	-12224
▁[[2000	-12225
▁reserv	-12226
▁scroll	-12227
▁surviv	-12228
flagicon	-12229
▁antonio	-12230
▁domains	-12231
▁fourier	-12232
▁hitting	-12233
▁mapping	-12234
▁messeng	-12235
▁regards	-12236
▁solomon	-12237
▁viruses	-12238
published	-12239
synthetic	-12240
▁[[1989]]	-12241
▁acoustic	-12242
▁adherent	-12243
▁kasparov	-12244
▁perceive	-12245
▁performs	-12246
▁diagnosis	-12247
▁gutenberg	-12248
▁modifying	-12249
▁somewhere	-12250
▁telescope	-12251
programming	-12252
▁processors	-12253
▁protective	-12254
▁partnership	-12255
environmental	-12256
any	-12257
uta	-12258
inct	-12259
ohio	-12260
wars	-12261
▁16,	-12262
▁80%	-12263
▁rav	-12264
aders	-12265
apart	-12266
nosis	-12267
swick	-12268
▁[[25	-12269
▁[[26	-12270
▁apoc	-12271
▁fles	-12272
▁leaf	-12273
▁sins	-12274
▁slot	-12275
▁robot	-12276
achment	-12277
▁easter	-12278
▁enzyme	-12279
▁saving	-12280
▁steady	-12281
colorado	-12282
▁alabama	-12283
▁assumes	-12284
▁clement	-12285
▁hopkins	-12286
▁shipped	-12287
▁valleys	-12288
▁dividing	-12289
▁falkland	-12290
▁hypnosis	-12291
▁lighting	-12292
▁psychiat	-12293
▁railways	-12294
cincinnati	-12295
▁brunswick	-12296
▁disciples	-12297
▁discontin	-12298
▁guatemala	-12299
▁neighbors	-12300
▁planetary	-12301
▁questioned	-12302
▁restaurant	-12303
▁importantly	-12304
▁continuously	-12305
cus	-12306
opt	-12307
typ	-12308
voc	-12309
iley	-12310
unei	-12311
▁afl	-12312
▁lux	-12313
terry	-12314
ulfur	-12315
▁guam	-12316
▁nile	-12317
atured	-12318
prises	-12319
risian	-12320
▁2004)	-12321
▁aided	-12322
▁metab	-12323
▁worsh	-12324
angular	-12325
▁marble	-12326
▁quebec	-12327
nintendo	-12328
ordinate	-12329
▁angular	-12330
▁gradual	-12331
▁martial	-12332
▁shuttle	-12333
literally	-12334
secretary	-12335
▁adequate	-12336
▁alveolar	-12337
▁avoiding	-12338
▁fortress	-12339
▁hinduism	-12340
▁elephants	-12341
▁ferdinand	-12342
▁graphical	-12343
▁imaginary	-12344
▁investors	-12345
▁mandatory	-12346
▁reporting	-12347
▁sentences	-12348
▁sustained	-12349
▁domination	-12350
▁minorities	-12351
▁treatments	-12352
▁enterprises	-12353
▁possessions	-12354
▁westminster	-12355
eus	-12356
iom	-12357
ung	-12358
▁0;	-12359
▁39	-12360
▁dm	-12361
athy	-12362
cuba	-12363
pass	-12364
annon	-12365
gered	-12366
naeus	-12367
ochet	-12368
oenix	-12369
▁tune	-12370
▁unto	-12371
harold	-12372
oxygen	-12373
▁escal	-12374
▁farms	-12375
▁flame	-12376
▁glaci	-12377
▁milan	-12378
introdu	-12379
israeli	-12380
▁battal	-12381
▁chopin	-12382
▁decree	-12383
▁gaming	-12384
▁summit	-12385
▁xavier	-12386
finalist	-12387
onential	-12388
▁beckham	-12389
▁flowing	-12390
▁numeral	-12391
▁specify	-12392
▁[[1979]]	-12393
▁generals	-12394
▁heracles	-12395
▁holidays	-12396
▁pinochet	-12397
▁acclaimed	-12398
▁governors	-12399
▁commitment	-12400
▁objectives	-12401
▁petersburg	-12402
▁scriptures	-12403
organization	-12404
▁appointment	-12405
▁battleships	-12406
▁dictatorship	-12407
ds	-12408
ji	-12409
pc	-12410
zo	-12411
▁7.	-12412
anal	-12413
infl	-12414
rang	-12415
riel	-12416
ryan	-12417
they	-12418
tour	-12419
▁fee	-12420
▁joy	-12421
▁mrs	-12422
child	-12423
local	-12424
ricks	-12425
▁boss	-12426
▁reds	-12427
alaska	-12428
associ	-12429
batman	-12430
etooth	-12431
thirds	-12432
▁1992.	-12433
▁amber	-12434
▁sheep	-12435
▁skept	-12436
tourism	-12437
▁bloody	-12438
▁fortun	-12439
▁pierce	-12440
▁relate	-12441
▁resort	-12442
▁riding	-12443
▁videos	-12444
currency	-12445
▁chilean	-12446
christmas	-12447
inflation	-12448
▁infamous	-12449
▁inferior	-12450
▁interact	-12451
▁prussian	-12452
▁abolition	-12453
▁affecting	-12454
▁bluetooth	-12455
▁intervals	-12456
▁discussing	-12457
▁similarity	-12458
▁speculated	-12459
nn	-12460
''(	-12461
hew	-12462
pos	-12463
ulum	-12464
▁eds	-12465
dorff	-12466
lined	-12467
▁fric	-12468
▁harv	-12469
▁leon	-12470
▁luke	-12471
source	-12472
▁fraud	-12473
▁tract	-12474
▁unpre	-12475
sources	-12476
usdorff	-12477
▁bengal	-12478
▁deeper	-12479
▁grants	-12480
▁incred	-12481
▁metall	-12482
▁parker	-12483
▁shells	-12484
▁trends	-12485
▁update	-12486
▁cheaper	-12487
▁heavier	-12488
▁justify	-12489
▁lateral	-12490
▁museums	-12491
▁rebuilt	-12492
▁warrior	-12493
▁cornwall	-12494
▁drawings	-12495
▁frederic	-12496
characters	-12497
▁designers	-12498
▁proposals	-12499
established	-12500
▁bankruptcy	-12501
▁evaluation	-12502
▁suppressed	-12503
▁identifying	-12504
▁expenditures	-12505
▁resurrection	-12506
=:	-12507
mu	-12508
13;	-12509
=</	-12510
mot	-12511
anny	-12512
anor	-12513
arat	-12514
arin	-12515
coal	-12516
edit	-12517
love	-12518
▁nan	-12519
2713;	-12520
basic	-12521
defin	-12522
isted	-12523
olean	-12524
uscan	-12525
▁bath	-12526
▁inac	-12527
▁pull	-12528
effect	-12529
▁caves	-12530
▁papal	-12531
▁pyram	-12532
▁rigid	-12533
▁treas	-12534
epistle	-12535
▁arrive	-12536
▁bigger	-12537
▁intend	-12538
▁manned	-12539
▁parity	-12540
2713;}}&	-12541
▁deconst	-12542
▁empires	-12543
▁feeding	-12544
▁handful	-12545
▁mandate	-12546
▁runways	-12547
▁astrolog	-12548
▁benedict	-12549
▁brussels	-12550
▁classics	-12551
▁elevator	-12552
▁florence	-12553
▁immortal	-12554
▁{{1911}}	-12555
▁[[2006]].	-12556
▁attending	-12557
▁inclusion	-12558
▁perfectly	-12559
▁allegiance	-12560
▁compromise	-12561
▁soundtrack	-12562
▁spectacular	-12563
▁dictionaries	-12564
▁philadelphia	-12565
▁registration	-12566
▁administrator	-12567
▁establishments	-12568
65	-12569
km	-12570
cri	-12571
eit	-12572
far	-12573
lam	-12574
"">&	-12575
brid	-12576
disc	-12577
enos	-12578
juan	-12579
leap	-12580
nato	-12581
warf	-12582
▁eru	-12583
eches	-12584
essee	-12585
nding	-12586
otive	-12587
ranks	-12588
▁bann	-12589
▁bent	-12590
agraph	-12591
dublin	-12592
wright	-12593
▁1989.	-12594
▁admit	-12595
▁airpl	-12596
▁brill	-12597
▁buses	-12598
▁chris	-12599
▁conce	-12600
▁stops	-12601
exports	-12602
fantasy	-12603
fiction	-12604
imports	-12605
society	-12606
▁2005).	-12607
▁albeit	-12608
▁chiang	-12609
▁giants	-12610
▁hybrid	-12611
ferenced	-12612
▁archaic	-12613
▁clients	-12614
▁magical	-12615
▁orbital	-12616
biography	-12617
▁currents	-12618
▁faithful	-12619
▁feminine	-12620
▁marketed	-12621
▁speeches	-12622
▁thinkers	-12623
▁wildlife	-12624
▁*[[2003]]	-12625
▁anarchist	-12626
▁auxiliary	-12627
▁collision	-12628
▁container	-12629
▁paragraph	-12630
▁tennessee	-12631
▁ambassador	-12632
▁authorlink	-12633
▁bangladesh	-12634
▁criticised	-12635
▁explaining	-12636
▁formations	-12637
▁indication	-12638
▁programmer	-12639
▁constituent	-12640
▁formulation	-12641
▁observances	-12642
▁standardized	-12643
▁surprisingly	-12644
▁theoretically	-12645
aho	-12646
ido	-12647
rog	-12648
yah	-12649
|[[	-12650
▁dw	-12651
ager	-12652
aids	-12653
oven	-12654
wich	-12655
▁slo	-12656
maria	-12657
▁clot	-12658
▁saga	-12659
iating	-12660
michel	-12661
▁aspir	-12662
▁digit	-12663
▁evans	-12664
▁humid	-12665
▁idaho	-12666
▁knock	-12667
onsored	-12668
▁(1987)	-12669
icularly	-12670
▁crusade	-12671
▁emission	-12672
▁genetics	-12673
▁missouri	-12674
▁proceeds	-12675
▁celestial	-12676
▁depicting	-12677
▁justified	-12678
▁sponsored	-12679
▁unrelated	-12680
▁facilitate	-12681
▁privileges	-12682
particularly	-12683
ift	-12684
▁dal	-12685
▁kir	-12686
▁nas	-12687
ashes	-12688
▁1949	-12689
▁cord	-12690
▁ferm	-12691
▁joke	-12692
▁rect	-12693
▁sear	-12694
course	-12695
elling	-12696
norman	-12697
▁1985,	-12698
▁widow	-12699
▁20,000	-12700
▁daleks	-12701
▁digest	-12702
▁incons	-12703
▁mixing	-12704
▁queens	-12705
aredevil	-12706
franklin	-12707
orthodox	-12708
pressure	-12709
▁colored	-12710
▁depicts	-12711
▁revenge	-12712
▁wedding	-12713
clamation	-12714
▁broadway	-12715
▁eligible	-12716
▁seasonal	-12717
▁shopping	-12718
▁adjective	-12719
▁economist	-12720
▁editorial	-12721
▁kilometre	-12722
▁preparing	-12723
▁redirects	-12724
▁responses	-12725
▁unpopular	-12726
▁emphasized	-12727
▁indonesian	-12728
▁unexpected	-12729
▁intercourse	-12730
kat	-12731
urd	-12732
▁49	-12733
▁ix	-12734
full	-12735
inch	-12736
kurt	-12737
mish	-12738
moon	-12739
ogan	-12740
rena	-12741
thon	-12742
witz	-12743
▁14,	-12744
▁17,	-12745
▁30,	-12746
acrit	-12747
aijan	-12748
erald	-12749
gamma	-12750
henri	-12751
omega	-12752
types	-12753
▁1925	-12754
▁ears	-12755
▁imdb	-12756
▁seiz	-12757
▁wise	-12758
alling	-12759
▁bytes	-12760
▁enron	-12761
▁gifts	-12762
▁resid	-12763
▁swept	-12764
▁wrest	-12765
ructive	-12766
wilhelm	-12767
▁[[2004	-12768
▁arises	-12769
▁correl	-12770
▁dozens	-12771
▁miscon	-12772
▁praise	-12773
▁radius	-12774
erbaijan	-12775
▁concord	-12776
▁diacrit	-12777
▁flemish	-12778
▁prolong	-12779
▁soviets	-12780
▁[[1972]]	-12781
▁[[1982]]	-12782
▁highways	-12783
▁incidents	-12784
▁numbering	-12785
▁switching	-12786
renaissance	-12787
▁missionary	-12788
encyclopedia	-12789
▁commodities	-12790
▁functioning	-12791
▁prohibition	-12792
▁proprietary	-12793
▁terrestrial	-12794
▁ecclesiastical	-12795
mur	-12796
six	-12797
▁55	-12798
ando	-12799
bath	-12800
buff	-12801
ello	-12802
ikib	-12803
olds	-12804
▁aur	-12805
▁ddt	-12806
▁esa	-12807
▁hes	-12808
autow	-12809
cesco	-12810
licop	-12811
▁[[23	-12812
▁fitz	-12813
▁incl	-12814
▁oath	-12815
▁prim	-12816
▁wake	-12817
julius	-12818
ologic	-12819
rowser	-12820
▁1987,	-12821
▁denom	-12822
▁prone	-12823
▁risks	-12824
▁satan	-12825
▁tenth	-12826
▁trick	-12827
britain	-12828
ernando	-12829
isotope	-12830
journal	-12831
▁50,000	-12832
▁arrows	-12833
▁buying	-12834
▁lawyer	-12835
▁orwell	-12836
▁replic	-12837
▁underm	-12838
historic	-12839
margaret	-12840
▁chaplin	-12841
▁colloqu	-12842
▁enacted	-12843
▁printer	-12844
▁recount	-12845
▁sabbath	-12846
▁wherein	-12847
autowikib	-12848
▁costello	-12849
▁declares	-12850
▁managing	-12851
▁monopoly	-12852
▁prospect	-12853
▁[[2003]])	-12854
▁activists	-12855
▁discourse	-12856
▁emissions	-12857
▁intensity	-12858
▁obtaining	-12859
▁pioneered	-12860
▁promotion	-12861
▁qualified	-12862
▁reprinted	-12863
▁sexuality	-12864
▁volunteer	-12865
▁absorption	-12866
▁broadcasts	-12867
▁fitzgerald	-12868
▁indirectly	-12869
▁manchester	-12870
▁prevention	-12871
▁assumptions	-12872
▁battlefield	-12873
▁linguistics	-12874
▁denomination	-12875
constitutional	-12876
▁autobiography	-12877
autowikibrowser	-12878
mag	-12879
▁ju	-12880
andr	-12881
ivia	-12882
ixon	-12883
▁pdf	-12884
▁ted	-12885
fixed	-12886
rared	-12887
▁28]]	-12888
▁mine	-12889
▁rays	-12890
famous	-12891
remend	-12892
roughs	-12893
single	-12894
vienna	-12895
▁angry	-12896
▁eaten	-12897
▁naked	-12898
▁nixon	-12899
▁outdo	-12900
▁sects	-12901
▁torah	-12902
ukraine	-12903
▁(1993)	-12904
▁blamed	-12905
▁fabric	-12906
▁finest	-12907
▁foster	-12908
▁hudson	-12909
▁rivals	-12910
▁timing	-12911
▁catalan	-12912
▁charity	-12913
▁consort	-12914
▁debates	-12915
▁overlap	-12916
▁suspect	-12917
▁tremend	-12918
▁armoured	-12919
▁asserted	-12920
▁cartoons	-12921
▁combines	-12922
▁confront	-12923
▁lowlands	-12924
▁metaphys	-12925
▁topology	-12926
▁triangle	-12927
ologically	-12928
▁*[[1945]]	-12929
▁*[[2004]]	-12930
▁burroughs	-12931
▁composite	-12932
▁expressing	-12933
▁israelites	-12934
▁ingredients	-12935
▁predominant	-12936
▁achievements	-12937
▁approximation	-12938
eas	-12939
syn	-12940
▁0%	-12941
▁1:	-12942
▁95	-12943
▁bt	-12944
▁xi	-12945
14</	-12946
oese	-12947
post	-12948
went	-12949
▁1.5	-12950
▁ada	-12951
chell	-12952
heavy	-12953
onium	-12954
othic	-12955
ronom	-12956
▁*195	-12957
▁1965	-12958
▁bart	-12959
▁hide	-12960
▁lift	-12961
▁shaw	-12962
▁wwii	-12963
ailand	-12964
months	-12965
▁3,000	-12966
▁aired	-12967
▁boats	-12968
▁discs	-12969
▁inert	-12970
▁metro	-12971
▁nutri	-12972
▁saudi	-12973
▁seeds	-12974
crystal	-12975
isition	-12976
▁autism	-12977
▁citing	-12978
▁emerge	-12979
▁judged	-12980
▁noting	-12981
▁prosec	-12982
astronom	-12983
etically	-12984
hamilton	-12985
ifferent	-12986
vladimir	-12987
▁appreci	-12988
▁babbage	-12989
▁penguin	-12990
▁rituals	-12991
▁mitchell	-12992
▁sanskrit	-12993
▁stereoty	-12994
▁weakened	-12995
▁comparing	-12996
▁offspring	-12997
▁spreading	-12998
▁underwent	-12999
▁affiliated	-13000
▁censorship	-13001
▁kilometres	-13002
▁liberalism	-13003
▁protecting	-13004
▁resembling	-13005
▁suggestion	-13006
philadelphia	-13007
▁constraints	-13008
▁ideological	-13009
▁theologians	-13010
▁alternatives	-13011
▁assassinated	-13012
nu	-13013
kic	-13014
ogy	-13015
peru	-13016
vial	-13017
):'''	-13018
edgar	-13019
heres	-13020
rades	-13021
engine	-13022
nowiki	-13023
offrey	-13024
▁1988,	-13025
▁ashes	-13026
▁boxer	-13027
▁edgar	-13028
▁frust	-13029
▁guild	-13030
▁smoke	-13031
illance	-13032
▁aerial	-13033
▁barely	-13034
▁cotton	-13035
▁julius	-13036
▁refuse	-13037
▁stance	-13038
▁summon	-13039
▁thread	-13040
▁thrust	-13041
▁verbal	-13042
▁brigade	-13043
▁execute	-13044
▁fencing	-13045
▁organiz	-13046
▁ranking	-13047
▁realize	-13048
▁statute	-13049
▁[[1998]],	-13050
▁dartmouth	-13051
▁fertility	-13052
▁compilation	-13053
▁principally	-13054
▁expectations	-13055
▁surveillance	-13056
>[[	-13057
iph	-13058
50]]	-13059
antu	-13060
assi	-13061
made	-13062
▁jan	-13063
domin	-13064
icate	-13065
▁eden	-13066
▁sack	-13067
gordon	-13068
system	-13069
▁arche	-13070
▁lacks	-13071
▁offsh	-13072
▁shops	-13073
detroit	-13074
lements	-13075
▁(1990)	-13076
▁caliph	-13077
▁holder	-13078
biblical	-13079
columbia	-13080
historia	-13081
▁2005]],	-13082
▁employs	-13083
▁marched	-13084
▁mistake	-13085
▁scripts	-13086
omorphism	-13087
▁democrat	-13088
▁habsburg	-13089
▁probable	-13090
▁regiment	-13091
▁remnants	-13092
functional	-13093
▁*[[1975]]	-13094
▁addiction	-13095
▁adherents	-13096
▁bordering	-13097
▁defendant	-13098
▁desirable	-13099
▁detective	-13100
▁empirical	-13101
▁histories	-13102
▁popularly	-13103
▁sentenced	-13104
▁shortened	-13105
grammatical	-13106
▁subjective	-13107
▁calculating	-13108
▁problematic	-13109
▁protestants	-13110
▁transported	-13111
▁demonstration	-13112
▁justification	-13113
11;	-13114
isc	-13115
lat	-13116
rud	-13117
▁6.	-13118
bank	-13119
cula	-13120
hman	-13121
seat	-13122
slav	-13123
uela	-13124
▁ceo	-13125
atial	-13126
build	-13127
gross	-13128
ville	-13129
yleft	-13130
▁cpus	-13131
▁esot	-13132
▁spra	-13133
▁tort	-13134
▁touc	-13135
▁vand	-13136
fossil	-13137
oliver	-13138
slavic	-13139
soccer	-13140
taiwan	-13141
▁burst	-13142
▁chest	-13143
▁grows	-13144
▁moist	-13145
▁phant	-13146
▁utter	-13147
;#8211;	-13148
college	-13149
ourable	-13150
▁buffer	-13151
▁cayman	-13152
▁coasts	-13153
▁submit	-13154
▁(2003).	-13155
▁bohemia	-13156
▁crosses	-13157
▁dancing	-13158
▁enforce	-13159
▁innings	-13160
▁insects	-13161
▁spatial	-13162
▁trinity	-13163
▁unicode	-13164
▁[[1986]]	-13165
▁[[1988]]	-13166
▁clarinet	-13167
▁esoteric	-13168
▁hawaiian	-13169
▁insisted	-13170
▁precursor	-13171
▁testimony	-13172
▁entreprene	-13173
▁generating	-13174
▁persistent	-13175
▁mountainous	-13176
▁originating	-13177
▁commentators	-13178
▁inscriptions	-13179
▁insufficient	-13180
▁northwestern	-13181
▁recreational	-13182
▁complementary	-13183
▁participating	-13184
70	-13185
rk	-13186
-14	-13187
akh	-13188
hal	-13189
vas	-13190
▁ta	-13191
51</	-13192
feld	-13193
upil	-13194
▁(17	-13195
▁dic	-13196
▁eph	-13197
▁iso	-13198
aired	-13199
▁30]]	-13200
▁[[31	-13201
▁evac	-13202
▁gren	-13203
▁mete	-13204
▁scar	-13205
births	-13206
ethiop	-13207
offset	-13208
▁5,000	-13209
▁andre	-13210
▁cream	-13211
▁drift	-13212
▁flesh	-13213
▁pupil	-13214
▁scout	-13215
▁sorts	-13216
▁yugos	-13217
captain	-13218
▁[[2003	-13219
▁kansas	-13220
▁marvel	-13221
▁offend	-13222
▁seldom	-13223
governor	-13224
▁anarcho	-13225
▁lengthy	-13226
▁servant	-13227
▁suscept	-13228
norwegian	-13229
▁enabling	-13230
▁guidance	-13231
▁latitude	-13232
▁sexually	-13233
▁tutorial	-13234
▁anonymous	-13235
▁observing	-13236
▁translates	-13237
▁accommodate	-13238
▁colonization	-13239
.|	-13240
ja	-13241
ecd	-13242
▁ai	-13243
▁sq	-13244
aeda	-13245
epis	-13246
isle	-13247
itol	-13248
olen	-13249
▁bak	-13250
▁fda	-13251
▁leo	-13252
▁mud	-13253
▁ore	-13254
▁rud	-13255
agger	-13256
genre	-13257
imity	-13258
pruss	-13259
ronym	-13260
trade	-13261
▁*193	-13262
▁deut	-13263
▁mini	-13264
▁ster	-13265
izable	-13266
legisl	-13267
market	-13268
utonic	-13269
▁(1995	-13270
▁[[181	-13271
▁epist	-13272
▁urged	-13273
listing	-13274
maurice	-13275
▁dealer	-13276
▁incent	-13277
▁posted	-13278
▁puerto	-13279
▁stabil	-13280
▁strain	-13281
▁subtle	-13282
dungeons	-13283
egyptian	-13284
roscopic	-13285
▁backing	-13286
▁castile	-13287
▁decides	-13288
▁rivalry	-13289
chemistry	-13290
▁concerts	-13291
▁disambig	-13292
▁eighteen	-13293
▁innocent	-13294
▁ordained	-13295
▁township	-13296
▁advertise	-13297
▁emphasize	-13298
▁proximity	-13299
▁searching	-13300
legislative	-13301
▁beneficial	-13302
▁continents	-13303
▁equivalence	-13304
▁imprisonment	-13305
▁anniversaries	-13306
047	-13307
lan	-13308
utc	-13309
▁:=	-13310
homo	-13311
idal	-13312
many	-13313
olph	-13314
pels	-13315
uity	-13316
▁23,	-13317
▁aka	-13318
agost	-13319
ascus	-13320
genus	-13321
glass	-13322
norse	-13323
oiler	-13324
ringe	-13325
sugar	-13326
▁1939	-13327
▁bros	-13328
▁nest	-13329
▁sits	-13330
agosto	-13331
temple	-13332
▁3,047	-13333
▁cruel	-13334
▁lodge	-13335
▁ought	-13336
▁timor	-13337
herical	-13338
redited	-13339
spoiler	-13340
writing	-13341
▁attorn	-13342
▁connot	-13343
▁copied	-13344
▁corpus	-13345
▁hammer	-13346
▁hazard	-13347
▁saxony	-13348
buddhism	-13349
timeline	-13350
▁accepts	-13351
▁burkina	-13352
▁condens	-13353
▁erosion	-13354
▁gospels	-13355
▁sixteen	-13356
▁belonged	-13357
▁damascus	-13358
▁delaware	-13359
▁sanction	-13360
biological	-13361
indigenous	-13362
▁[[2003]].	-13363
▁achieving	-13364
▁afterlife	-13365
▁amsterdam	-13366
▁extracted	-13367
▁theorists	-13368
▁compulsory	-13369
▁deliberate	-13370
▁descendant	-13371
▁identifies	-13372
▁instituted	-13373
▁negotiated	-13374
bibliography	-13375
▁circulation	-13376
▁resemblance	-13377
▁southwestern	-13378
▁developmental	-13379
bos	-13380
lou	-13381
nep	-13382
thy	-13383
jazz	-13384
otsw	-13385
rays	-13386
▁(3)	-13387
▁21,	-13388
orges	-13389
otics	-13390
▁29]]	-13391
▁diod	-13392
▁pour	-13393
iments	-13394
office	-13395
states	-13396
terson	-13397
▁dalek	-13398
▁gauss	-13399
▁harps	-13400
▁poore	-13401
▁rally	-13402
▁rocky	-13403
▁threw	-13404
astrous	-13405
ulative	-13406
▁confer	-13407
▁dances	-13408
▁frames	-13409
▁habits	-13410
▁wesley	-13411
▁confron	-13412
▁damages	-13413
▁harrier	-13414
▁natives	-13415
francisco	-13416
ibilities	-13417
structure	-13418
▁[[1985]]	-13419
▁fourteen	-13420
▁genocide	-13421
▁junction	-13422
▁apostolic	-13423
▁disappear	-13424
▁culturally	-13425
▁disastrous	-13426
▁endangered	-13427
▁explosives	-13428
▁songwriter	-13429
▁wellington	-13430
metropolitan	-13431
▁archaeology	-13432
▁coefficient	-13433
▁dissolution	-13434
▁obligations	-13435
▁resignation	-13436
▁explanations	-13437
▁transitional	-13438
99&	-13439
due	-13440
olo	-13441
pot	-13442
vik	-13443
>4</	-13444
iker	-13445
ivic	-13446
occo	-13447
scow	-13448
unix	-13449
clear	-13450
conan	-13451
famil	-13452
reens	-13453
ukary	-13454
▁meal	-13455
amburg	-13456
ergies	-13457
licity	-13458
orable	-13459
▁beads	-13460
▁beast	-13461
▁civic	-13462
▁drums	-13463
▁gradu	-13464
▁roger	-13465
▁tiger	-13466
▁turks	-13467
▁valve	-13468
cuisine	-13469
istence	-13470
ropract	-13471
▁*[[185	-13472
▁30,000	-13473
▁manske	-13474
▁modify	-13475
▁moscow	-13476
broadway	-13477
featured	-13478
negative	-13479
▁delayed	-13480
▁faction	-13481
▁nearest	-13482
▁regimes	-13483
▁screens	-13484
▁singers	-13485
▁sisters	-13486
▁winters	-13487
▁frankish	-13488
▁memories	-13489
▁metallic	-13490
▁secretly	-13491
definition	-13492
▁*[[1972]]	-13493
▁[[2001]].	-13494
▁astrology	-13495
▁breakdown	-13496
▁defeating	-13497
▁displaced	-13498
▁paperback	-13499
▁partition	-13500
▁reluctant	-13501
▁retaining	-13502
▁subjected	-13503
▁calculator	-13504
▁chiropract	-13505
▁converting	-13506
▁ecological	-13507
▁guaranteed	-13508
▁continually	-13509
▁representations	-13510
;|-	-13511
lun	-13512
zek	-13513
▁#*	-13514
bull	-13515
imen	-13516
neil	-13517
rett	-13518
rika	-13519
▁gur	-13520
▁mph	-13521
▁una	-13522
cover	-13523
isers	-13524
keter	-13525
lunar	-13526
▁27]]	-13527
▁bold	-13528
▁cric	-13529
▁eich	-13530
▁marl	-13531
▁trig	-13532
▁acres	-13533
▁ferry	-13534
▁hayek	-13535
▁moder	-13536
▁smell	-13537
isation	-13538
meaning	-13539
▁angola	-13540
▁bubble	-13541
▁stuart	-13542
▁curling	-13543
▁defeats	-13544
▁inquiry	-13545
reference	-13546
▁[[1975]]	-13547
▁armenian	-13548
▁eichmann	-13549
▁presumed	-13550
▁prolific	-13551
▁yourself	-13552
▁*[[1970]]	-13553
▁augustine	-13554
▁bacterial	-13555
▁cricketer	-13556
▁intercept	-13557
▁receivers	-13558
▁reservoir	-13559
▁triggered	-13560
▁addressing	-13561
▁controller	-13562
▁regulatory	-13563
▁congregation	-13564
▁northeastern	-13565
▁modifications	-13566
cs	-13567
oy	-13568
dad	-13569
psy	-13570
▁ms	-13571
fers	-13572
ioch	-13573
rape	-13574
▁hed	-13575
▁hij	-13576
▁ron	-13577
borne	-13578
carol	-13579
decay	-13580
ghdad	-13581
holid	-13582
mable	-13583
upper	-13584
▁arom	-13585
▁lots	-13586
dennis	-13587
erable	-13588
▁badly	-13589
▁febre	-13590
▁loses	-13591
▁probe	-13592
▁velar	-13593
plified	-13594
sourced	-13595
▁(1988)	-13596
▁hijack	-13597
▁impose	-13598
▁parish	-13599
▁prelim	-13600
▁visits	-13601
domestic	-13602
holidays	-13603
▁adverse	-13604
▁blocked	-13605
▁colonel	-13606
▁drummer	-13607
▁hamster	-13608
▁lengths	-13609
▁pressed	-13610
▁[[1973]]	-13611
▁dinosaur	-13612
▁optional	-13613
▁suppress	-13614
▁watching	-13615
manchester	-13616
▁[[1997]],	-13617
▁admission	-13618
▁aftermath	-13619
▁behaviors	-13620
▁sacrament	-13621
▁unsourced	-13622
▁analytical	-13623
▁productive	-13624
▁preliminary	-13625
▁radioactive	-13626
▁cryptography	-13627
▁heterosexual	-13628
▁predecessors	-13629
=4	-13630
cv	-13631
-10	-13632
ceb	-13633
hua	-13634
mam	-13635
vey	-13636
▁*#	-13637
▁3)	-13638
▁nl	-13639
!]])	-13640
auri	-13641
cola	-13642
phew	-13643
ules	-13644
▁25,	-13645
actic	-13646
armen	-13647
voice	-13648
▁1941	-13649
▁1945	-13650
▁24]]	-13651
▁lamp	-13652
!]])</	-13653
ameral	-13654
aranth	-13655
archus	-13656
sydney	-13657
▁dried	-13658
▁eagle	-13659
▁nanot	-13660
▁rites	-13661
toronto	-13662
▁firmly	-13663
▁flower	-13664
▁genera	-13665
▁geneva	-13666
▁nephew	-13667
▁norman	-13668
▁stimul	-13669
▁arabian	-13670
▁conject	-13671
▁deleted	-13672
▁frisian	-13673
▁loyalty	-13674
▁marshal	-13675
▁spencer	-13676
▁vincent	-13677
▁centauri	-13678
▁confeder	-13679
▁feminism	-13680
▁managers	-13681
▁numerals	-13682
▁demanding	-13683
documentary	-13684
▁chromosome	-13685
▁hipparchus	-13686
▁astronomers	-13687
▁cultivation	-13688
▁instability	-13689
▁topological	-13690
▁transparent	-13691
▁accompanying	-13692
▁alphabetical	-13693
%&	-13694
__	-13695
hr	-13696
-52	-13697
gab	-13698
hig	-13699
sum	-13700
ndon	-13701
rice	-13702
tees	-13703
zero	-13704
▁2.5	-13705
▁gel	-13706
▁lou	-13707
;!--"	-13708
alban	-13709
brown	-13710
rible	-13711
stars	-13712
▁boot	-13713
▁dune	-13714
▁jean	-13715
ennett	-13716
igeria	-13717
rillic	-13718
▁1980,	-13719
▁2003)	-13720
▁scrat	-13721
▁tubes	-13722
▁yeast	-13723
▁|'''&	-13724
▁comets	-13725
▁extant	-13726
▁persia	-13727
cedented	-13728
▁barbara	-13729
▁biochem	-13730
▁chester	-13731
▁gateway	-13732
▁patrick	-13733
▁permits	-13734
▁repress	-13735
▁resumed	-13736
▁shannon	-13737
▁silence	-13738
▁surrend	-13739
▁[[1987]]	-13740
▁guardian	-13741
▁implicit	-13742
capitalism	-13743
▁brilliant	-13744
▁customary	-13745
▁variously	-13746
▁absolutely	-13747
▁ceremonies	-13748
▁committees	-13749
▁indefinite	-13750
▁investigate	-13751
▁discontinued	-13752
▁unprecedented	-13753
dst	-13754
png	-13755
zen	-13756
▁ach	-13757
▁thy	-13758
▁uss	-13759
''(''	-13760
aters	-13761
gence	-13762
kings	-13763
piece	-13764
votes	-13765
▁bund	-13766
erving	-13767
handed	-13768
igious	-13769
▁1983,	-13770
▁annot	-13771
▁blank	-13772
▁rabbi	-13773
▁versa	-13774
▁analys	-13775
▁chiefs	-13776
▁flavor	-13777
▁frozen	-13778
▁harold	-13779
▁sailed	-13780
▁sketch	-13781
▁soccer	-13782
▁wheels	-13783
virginia	-13784
▁advised	-13785
▁clothes	-13786
▁harmful	-13787
▁proving	-13788
▁pushing	-13789
▁refined	-13790
▁somehow	-13791
▁answered	-13792
▁coloured	-13793
▁discoura	-13794
▁examined	-13795
▁founders	-13796
▁hypothes	-13797
▁manpower	-13798
▁shoulder	-13799
▁warriors	-13800
▁licensing	-13801
▁correction	-13802
▁exhibition	-13803
▁obligation	-13804
▁undertaken	-13805
▁prestigious	-13806
▁unification	-13807
▁implementing	-13808
▁comparatively	-13809
▁functionality	-13810
87	-13811
po	-13812
dys	-13813
era	-13814
zeb	-13815
▁8-	-13816
▁ko	-13817
bast	-13818
lang	-13819
ritz	-13820
clean	-13821
regon	-13822
▁cruz	-13823
▁pact	-13824
▁rows	-13825
▁sake	-13826
angzeb	-13827
namese	-13828
ourite	-13829
▁[[179	-13830
▁fatty	-13831
▁flute	-13832
▁franz	-13833
▁loans	-13834
▁secre	-13835
bastian	-13836
buffalo	-13837
raymond	-13838
stellar	-13839
▁dancer	-13840
▁degrad	-13841
▁detain	-13842
▁oregon	-13843
▁rifles	-13844
▁rommel	-13845
cardinal	-13846
overview	-13847
▁anatomy	-13848
▁dressed	-13849
▁interim	-13850
▁majesty	-13851
▁athenian	-13852
▁deceased	-13853
▁emotions	-13854
▁granting	-13855
▁aurangzeb	-13856
▁beverages	-13857
▁celebrity	-13858
▁commented	-13859
▁continuum	-13860
▁exchanged	-13861
▁excluding	-13862
▁favourite	-13863
▁portrayal	-13864
▁privately	-13865
▁prolonged	-13866
▁playwright	-13867
▁presenting	-13868
▁inscription	-13869
▁republicans	-13870
▁accidentally	-13871
constantinople	-13872
▁compatibility	-13873
.''	-13874
abc	-13875
leo	-13876
nab	-13877
▁bs	-13878
▁ss	-13879
18]]	-13880
bius	-13881
crit	-13882
nell	-13883
▁25%	-13884
▁roy	-13885
▁(191	-13886
▁blog	-13887
▁hugh	-13888
▁sixt	-13889
▁tack	-13890
aratus	-13891
ductor	-13892
ffeine	-13893
rugged	-13894
▁alike	-13895
▁burke	-13896
▁ignor	-13897
usebius	-13898
▁coptic	-13899
▁guests	-13900
▁poetic	-13901
▁redund	-13902
▁remind	-13903
▁wished	-13904
▁worker	-13905
johannes	-13906
keyboard	-13907
▁bureauc	-13908
▁condoms	-13909
▁dancers	-13910
▁imagery	-13911
▁skating	-13912
aristotle	-13913
▁[[1960]]	-13914
▁caffeine	-13915
▁chambers	-13916
▁shrugged	-13917
▁steadily	-13918
integrated	-13919
pittsburgh	-13920
▁*[[1974]]	-13921
▁aesthetic	-13922
▁ambiguous	-13923
▁apparatus	-13924
▁breathing	-13925
▁chronicle	-13926
▁expresses	-13927
▁gregorian	-13928
▁parallels	-13929
▁ecumenical	-13930
▁meaningful	-13931
▁chromosomes	-13932
▁prehistoric	-13933
▁proclamation	-13934
▁southeastern	-13935
▁interestingly	-13936
▁investigations	-13937
bay	-13938
jpm	-13939
pam	-13940
ibet	-13941
iner	-13942
pron	-13943
rail	-13944
rile	-13945
wave	-13946
▁bea	-13947
agues	-13948
grade	-13949
ioned	-13950
jpmol	-13951
minis	-13952
odied	-13953
ralph	-13954
rians	-13955
urred	-13956
▁1962	-13957
▁1963	-13958
▁beam	-13959
▁elim	-13960
▁hull	-13961
▁intr	-13962
▁lone	-13963
amount	-13964
archae	-13965
bledon	-13966
iciary	-13967
onacci	-13968
termin	-13969
▁dwarf	-13970
▁elves	-13971
▁enlar	-13972
▁hound	-13973
▁saxon	-13974
atories	-13975
▁(1991)	-13976
▁*[[184	-13977
▁deuter	-13978
▁feudal	-13979
▁grande	-13980
▁moines	-13981
▁overlo	-13982
imbledon	-13983
jonathan	-13984
▁beating	-13985
▁disrupt	-13986
▁enables	-13987
▁farther	-13988
▁noticed	-13989
▁posthum	-13990
▁realism	-13991
▁reminis	-13992
foundland	-13993
mentioned	-13994
secondary	-13995
▁[[1961]]	-13996
▁[[1974]]	-13997
▁divorced	-13998
▁favoured	-13999
▁heinrich	-14000
▁pitching	-14001
▁pregnant	-14002
▁pressing	-14003
▁saturday	-14004
▁socially	-14005
pronounced	-14006
▁*[[1943]]	-14007
▁*[[1967]]	-14008
▁*[[1968]]	-14009
▁[[1991]],	-14010
▁[[1994]],	-14011
▁automated	-14012
▁barcelona	-14013
▁battalion	-14014
▁battlecru	-14015
▁hausdorff	-14016
▁routledge	-14017
▁colleagues	-14018
▁disappoint	-14019
▁elimination	-14020
▁imagination	-14021
▁provisional	-14022
▁reminiscent	-14023
▁determination	-14024
=3	-14025
dc	-14026
hi	-14027
vy	-14028
523	-14029
guy	-14030
kee	-14031
lew	-14032
tex	-14033
▁99	-14034
auth	-14035
copy	-14036
gain	-14037
myth	-14038
oard	-14039
uchy	-14040
uran	-14041
wolf	-14042
▁sho	-14043
▁xiv	-14044
anglo	-14045
aples	-14046
matic	-14047
scand	-14048
▁1958	-14049
▁fiji	-14050
island	-14051
mother	-14052
▁1,523	-14053
▁2001)	-14054
▁boxes	-14055
▁ceded	-14056
▁duchy	-14057
▁fiber	-14058
▁heath	-14059
▁jumps	-14060
▁merit	-14061
▁nerve	-14062
▁plato	-14063
▁satie	-14064
patrick	-14065
private	-14066
▁[[1911	-14067
▁aboard	-14068
▁couldn	-14069
▁dayton	-14070
▁insert	-14071
▁missed	-14072
▁safely	-14073
▁slogan	-14074
jections	-14075
nicholas	-14076
▁helicop	-14077
▁lebanon	-14078
▁rejects	-14079
▁spawned	-14080
▁welcome	-14081
character	-14082
copyright	-14083
scandinav	-14084
▁[[1945]]	-14085
▁balanced	-14086
▁charlton	-14087
▁classify	-14088
▁damaging	-14089
▁peripher	-14090
▁subscrib	-14091
▁temporal	-14092
▁*[[1947]]	-14093
▁*[[2002]]	-14094
▁apartment	-14095
▁minnesota	-14096
▁processed	-14097
▁tolerance	-14098
▁antarctica	-14099
▁acquisition	-14100
▁businessman	-14101
▁countryside	-14102
▁culminating	-14103
▁prosecution	-14104
▁considerations	-14105
iku	-14106
rue	-14107
▁3%	-14108
cart	-14109
coat	-14110
doom	-14111
ffcc	-14112
odus	-14113
umph	-14114
▁kar	-14115
▁pes	-14116
▁ras	-14117
>62</	-14118
audio	-14119
barry	-14120
eries	-14121
igula	-14122
oting	-14123
pical	-14124
raeli	-14125
▁1800	-14126
▁802.	-14127
▁akin	-14128
▁dose	-14129
▁monk	-14130
▁punk	-14131
▁toll	-14132
▁tril	-14133
▁unne	-14134
athens	-14135
jordan	-14136
rodite	-14137
▁1984,	-14138
▁1988.	-14139
▁crude	-14140
▁fears	-14141
▁incar	-14142
▁locom	-14143
▁relax	-14144
▁rigor	-14145
▁semin	-14146
▁woods	-14147
baroque	-14148
houston	-14149
▁(1985)	-14150
▁(1986)	-14151
▁[[1940	-14152
▁agassi	-14153
▁arcade	-14154
▁crater	-14155
▁curric	-14156
▁enjoys	-14157
▁friday	-14158
▁indoor	-14159
▁ingest	-14160
▁purple	-14161
▁sealed	-14162
▁traged	-14163
▁unrest	-14164
▁weaker	-14165
analysis	-14166
antonese	-14167
▁bowling	-14168
▁coeffic	-14169
▁dodgers	-14170
▁ecology	-14171
▁equator	-14172
▁fortran	-14173
▁gilbert	-14174
▁lawsuit	-14175
▁portray	-14176
▁tissues	-14177
▁trilogy	-14178
▁triumph	-14179
▁caligula	-14180
▁consoles	-14181
▁copyleft	-14182
▁deterior	-14183
▁develops	-14184
▁disraeli	-14185
▁lutheran	-14186
▁maryland	-14187
▁quarters	-14188
▁romanian	-14189
▁unnecess	-14190
▁*[[1971]]	-14191
▁denounced	-14192
▁exploring	-14193
▁interfere	-14194
▁macedonia	-14195
▁promising	-14196
▁translate	-14197
▁copenhagen	-14198
▁constituted	-14199
▁dimensional	-14200
▁generalized	-14201
▁inheritance	-14202
▁subordinate	-14203
▁superiority	-14204
▁coefficients	-14205
▁disagreement	-14206
▁exploitation	-14207
▁missionaries	-14208
▁periodically	-14209
▁precipitation	-14210
pi	-14211
lot	-14212
sla	-14213
▁hp	-14214
▁sr	-14215
bted	-14216
ellm	-14217
nine	-14218
▁22,	-14219
▁gwh	-14220
▁lds	-14221
149</	-14222
comes	-14223
maver	-14224
phase	-14225
▁1961	-14226
▁[[28	-14227
▁cuts	-14228
▁dump	-14229
▁funk	-14230
▁gaza	-14231
▁peas	-14232
▁peru	-14233
▁tony	-14234
atible	-14235
compar	-14236
cyprus	-14237
ikhail	-14238
steven	-14239
theory	-14240
▁beans	-14241
▁edges	-14242
▁ellis	-14243
▁flown	-14244
▁patro	-14245
▁reply	-14246
▁robin	-14247
>2214</	-14248
ellmist	-14249
maveric	-14250
running	-14251
▁absent	-14252
▁astros	-14253
▁brutal	-14254
▁danube	-14255
▁decomp	-14256
▁makers	-14257
▁packet	-14258
▁analogy	-14259
▁buttons	-14260
▁cloning	-14261
▁exploit	-14262
▁synonym	-14263
▁trapped	-14264
oslovakia	-14265
▁[[1978]]	-14266
▁attained	-14267
▁carthage	-14268
▁deciding	-14269
▁divinity	-14270
▁garrison	-14271
▁nautical	-14272
▁occupies	-14273
▁packages	-14274
▁peasants	-14275
▁shortest	-14276
▁exercises	-14277
▁witnessed	-14278
▁capitalist	-14279
▁chronology	-14280
▁complement	-14281
▁infections	-14282
▁nationwide	-14283
▁separating	-14284
▁accelerated	-14285
▁adaptations	-14286
▁grandfather	-14287
▁prominently	-14288
▁incompatible	-14289
▁constitutions	-14290
▁fundamentally	-14291
▁miscellaneous	-14292
gb	-14293
tro	-14294
▁68	-14295
▁pg	-14296
ucky	-14297
▁160	-14298
▁apr	-14299
▁hdi	-14300
▁joe	-14301
▁unw	-14302
eddie	-14303
imacy	-14304
sfeld	-14305
▁100%	-14306
▁1915	-14307
▁1947	-14308
▁abba	-14309
▁flip	-14310
▁jury	-14311
▁koch	-14312
▁pent	-14313
▁sull	-14314
▁1973,	-14315
▁[[180	-14316
▁fever	-14317
▁hasid	-14318
▁liver	-14319
▁ordin	-14320
▁stems	-14321
greater	-14322
renamed	-14323
▁(1989)	-14324
▁finals	-14325
▁kernel	-14326
▁rabbin	-14327
▁alchemy	-14328
▁compute	-14329
▁crowley	-14330
▁habitat	-14331
▁outdoor	-14332
▁praised	-14333
▁romance	-14334
▁toronto	-14335
▁venture	-14336
algebraic	-14337
baltimore	-14338
satellite	-14339
▁[[1981]]	-14340
▁[[1984]]	-14341
▁dropping	-14342
▁inducted	-14343
▁rumsfeld	-14344
▁sullivan	-14345
▁surnames	-14346
archbishop	-14347
▁*[[1973]]	-14348
▁*[[1979]]	-14349
▁*[[1980]]	-14350
▁athletics	-14351
▁baltimore	-14352
▁interwiki	-14353
▁judgement	-14354
▁letterman	-14355
▁linguists	-14356
▁occupying	-14357
▁placement	-14358
▁complaints	-14359
▁motivation	-14360
▁referenced	-14361
▁structured	-14362
miscellaneous	-14363
▁authoritarian	-14364
▁characterised	-14365
▁incorporating	-14366
▁intentionally	-14367
▁reconstructed	-14368
00&	-14369
bmw	-14370
gua	-14371
ien	-14372
lyn	-14373
cury	-14374
fund	-14375
half	-14376
obic	-14377
resy	-14378
rity	-14379
umni	-14380
unal	-14381
wild	-14382
▁cpr	-14383
▁isa	-14384
lower	-14385
pebre	-14386
▁exit	-14387
▁owns	-14388
caster	-14389
herman	-14390
moscow	-14391
nature	-14392
▁(''[[	-14393
▁1981,	-14394
▁1985.	-14395
▁compl	-14396
▁pries	-14397
▁proud	-14398
▁reich	-14399
mercury	-14400
▁cauchy	-14401
▁harper	-14402
▁heresy	-14403
▁heroic	-14404
▁outlaw	-14405
▁rubber	-14406
▁stolen	-14407
▁wouldn	-14408
released	-14409
▁bounded	-14410
▁omitted	-14411
▁outline	-14412
▁qualify	-14413
▁cryonics	-14414
▁promises	-14415
▁taxation	-14416
▁*[[1944]]	-14417
▁*[[1960]]	-14418
▁*[[1969]]	-14419
▁*[[1976]]	-14420
▁announces	-14421
▁compelled	-14422
▁ethiopian	-14423
▁integrity	-14424
▁messenger	-14425
▁penalties	-14426
▁persuaded	-14427
fundamental	-14428
▁assessment	-14429
▁inherently	-14430
▁modulation	-14431
▁priesthood	-14432
▁projection	-14433
▁recognizes	-14434
▁approaching	-14435
▁positioning	-14436
▁reformation	-14437
▁incorporates	-14438
6).	-14439
abu	-14440
dyn	-14441
sri	-14442
]]).	-14443
ariz	-14444
dick	-14445
hana	-14446
mage	-14447
riac	-14448
▁28,	-14449
▁eva	-14450
▁qur	-14451
elian	-14452
fried	-14453
oeira	-14454
uster	-14455
▁dock	-14456
▁exem	-14457
▁stir	-14458
consum	-14459
gothic	-14460
serbia	-14461
string	-14462
▁(1994	-14463
▁embar	-14464
▁ghana	-14465
▁scrim	-14466
▁sworn	-14467
▁vague	-14468
arizona	-14469
hetical	-14470
kenneth	-14471
origins	-14472
osystem	-14473
without	-14474
▁(1973)	-14475
▁brunei	-14476
▁exempt	-14477
▁exotic	-14478
▁gerald	-14479
▁inning	-14480
▁legion	-14481
austrian	-14482
▁caption	-14483
▁eleanor	-14484
▁filming	-14485
▁fleming	-14486
▁hanging	-14487
▁shelter	-14488
▁traders	-14489
edinburgh	-14490
▁[[1983]]	-14491
▁capoeira	-14492
▁landmark	-14493
▁mutually	-14494
▁organize	-14495
▁oriental	-14496
▁proclaim	-14497
▁[[1999]].	-14498
▁depiction	-14499
▁euclidean	-14500
▁exploited	-14501
▁favorable	-14502
▁fricative	-14503
▁scrimmage	-14504
▁unchanged	-14505
playstation	-14506
▁diminished	-14507
▁illustrate	-14508
▁informally	-14509
▁noticeable	-14510
▁quarterback	-14511
▁hypothetical	-14512
▁authoritative	-14513
>75	-14514
bet	-14515
▁41	-14516
22</	-14517
hugh	-14518
song	-14519
▁rus	-14520
along	-14521
front	-14522
ptole	-14523
▁1910	-14524
▁affe	-14525
▁dean	-14526
▁grip	-14527
▁hart	-14528
▁lank	-14529
▁pale	-14530
edmund	-14531
howard	-14532
▁anger	-14533
▁jewel	-14534
▁lucas	-14535
▁maneu	-14536
▁oscar	-14537
▁peaks	-14538
▁stuff	-14539
▁trips	-14540
▁influx	-14541
▁ticket	-14542
giovanni	-14543
heinrich	-14544
▁amazing	-14545
▁asserts	-14546
▁crushed	-14547
▁dracula	-14548
▁ensuing	-14549
▁hazards	-14550
▁inspect	-14551
▁pyramid	-14552
▁teaches	-14553
apoleonic	-14554
▁attorney	-14555
▁elliptic	-14556
▁invaders	-14557
▁veterans	-14558
originally	-14559
▁[[1996]],	-14560
▁advancing	-14561
▁affection	-14562
▁bilateral	-14563
▁contested	-14564
▁kissinger	-14565
▁publicity	-14566
▁reproduce	-14567
▁sentiment	-14568
▁survivors	-14569
▁unusually	-14570
▁cartridges	-14571
▁contrasted	-14572
▁orchestral	-14573
▁remarkably	-14574
▁synonymous	-14575
▁tremendous	-14576
▁undergoing	-14577
▁alternating	-14578
▁conditional	-14579
▁celebrations	-14580
[...]
